#if defined __ICCARM__
#define __ALIGNED(x) __attribute__((aligned(x)))
#else
#define __ALIGNED(x) __attribute__((aligned(x)))
#endif
const unsigned char model1[] __ALIGNED(16) = {
0x4e,0x4e,0x43,0x55,0x01,0x00,0x01,0x00, 0x01,0x0e,0x07,0x00,0x0c,0x00,0x00,0x00, // 16
0x02,0x00,0x00,0x00,0x00,0x00,0x00,0x00, 0x18,0x01,0x00,0x00,0x02,0x00,0x00,0x00, // 32
0xe0,0x01,0x00,0x00,0xc8,0x00,0x00,0x00, 0x18,0x01,0x00,0x00,0x00,0x00,0x00,0x00, // 48
0x00,0x00,0x00,0x00,0x00,0x00,0x00,0x00, 0x00,0x00,0x00,0x00,0x00,0x00,0x00,0x00, // 64
0x00,0x00,0x00,0x00,0x00,0x00,0x00,0x00, 0xff,0xff,0xff,0xff,0xff,0xff,0xff,0xff, // 80
0x43,0x4d,0x44,0x00,0x20,0x00,0x80,0x00, 0x50,0x00,0x00,0x00,0x00,0xfe,0x00,0x00, // 96
0x73,0x6d,0x61,0x72,0x74,0x63,0x61,0x72, 0x5f,0x61,0x64,0x5f,0x64,0x65,0x6e,0x73, // 112
0x65,0x5f,0x64,0x72,0x6f,0x70,0x5f,0x30, 0x32,0x35,0x5f,0x61,0x64,0x53,0x69,0x7a, // 128
0x65,0x5f,0x31,0x5f,0x6e,0x6f,0x62,0x6e, 0x2e,0x68,0x35,0x0d,0x0a,0x54,0x68,0x75, // 144
0x20,0x4a,0x75,0x6c,0x20,0x31,0x36,0x20, 0x31,0x31,0x3a,0x30,0x38,0x3a,0x34,0x32, // 160
0x20,0x32,0x30,0x32,0x30,0x0d,0x0a,0x31, 0x34,0x20,0x62,0x69,0x74,0x73,0x0d,0x0a, // 176
0x6e,0x6e,0x63,0x75,0x20,0x76,0x65,0x72, 0x20,0x30,0x2e,0x30,0x70,0x0d,0x0a,0x00, // 192
0x00,0x00,0x00,0x00,0x00,0x00,0x00,0x00, 0x00,0x00,0x00,0x00,0x00,0x00,0x00,0x00, // 208
0x43,0x4d,0x44,0x00,0x20,0x02,0x00,0x00, 0xd0,0x00,0x00,0x00,0x10,0x02,0x00,0x00, // 224
0x00,0x01,0x00,0x02,0x07,0x05,0x05,0x0a, 0x00,0x00,0x00,0x00,0x00,0x00,0x00,0x00, // 240
0x01,0x00,0x0c,0x00,0x01,0x00,0x01,0x00, 0x8c,0x00,0x01,0x00,0x00,0x00,0x00,0x00, // 256
0x0c,0x00,0xff,0xff,0xff,0xff,0xff,0xff, 0x00,0x01,0x01,0x00,0x18,0x01,0x00,0x00, // 272
0x00,0x00,0x03,0x00,0x18,0x00,0x00,0x00, 0x00,0x00,0x00,0x00,0x00,0x00,0x00,0x00, // 288
0x00,0x00,0x00,0x00,0x00,0x00,0x00,0x00, 0x00,0x00,0x00,0x00,0x00,0x00,0x00,0x00, // 304
0x00,0x00,0x00,0x00,0x00,0x00,0x00,0x00, 0x00,0x00,0x00,0x00,0x00,0x00,0x00,0x00, // 320
0x00,0x00,0x00,0x00,0x00,0x00,0x00,0x00, 0x20,0x0d,0x00,0x00,0x18,0x01,0x00,0x00, // 336
0x6e,0x01,0xf4,0xfd,0x63,0xff,0x37,0xfe, 0x2e,0x03,0xc2,0xff,0x63,0x09,0x38,0xfe, // 352
0x9a,0x01,0x07,0x00,0x64,0x06,0xad,0xf9, 0x2f,0xff,0x63,0x00,0x41,0x04,0x87,0x00, // 368
0x74,0xfd,0x59,0xfd,0xef,0xfc,0x71,0x01, 0x10,0xfd,0x07,0xff,0xfb,0xf7,0x0e,0x06, // 384
0x77,0xff,0x54,0xf0,0x14,0x04,0x01,0xff, 0xab,0x02,0x2c,0xfa,0xda,0xfc,0x67,0x01, // 400
0x60,0x06,0x04,0x04,0x32,0xff,0x16,0xfe, 0xe5,0x01,0xb9,0xf7,0xee,0x00,0xee,0x00, // 416
0xb3,0x01,0x64,0xfc,0x99,0xf8,0xee,0x05, 0xed,0xfb,0xaf,0xfe,0x74,0xfd,0x3b,0x02, // 432
0x53,0x01,0xed,0x03,0x6c,0x01,0xa6,0xff, 0x62,0x02,0x49,0xff,0x9d,0x04,0x50,0xfa, // 448
0xa4,0xfd,0x0b,0x07,0x07,0xfe,0xaf,0xfc, 0xcf,0x02,0x1c,0xf7,0xfa,0x02,0x58,0xff, // 464
0xc3,0x01,0x06,0xfd,0x4a,0x05,0xca,0xf8, 0x25,0x03,0x8e,0xff,0x86,0xfe,0x7a,0x00, // 480
0x4b,0x00,0x46,0xfc,0x9b,0x04,0x98,0xff, 0x9a,0xff,0x3e,0xfc,0xf9,0xf9,0xfe,0x02, // 496
0xe0,0xfa,0x54,0xfd,0x96,0xfb,0xfd,0x03, 0x1f,0x01,0x7b,0xfa,0x7d,0x00,0xd3,0x00, // 512
0xcf,0x05,0x69,0xfe,0x2a,0x06,0xe2,0xfd, 0x92,0xfe,0xab,0x01,0x32,0x00,0xc9,0xf9, // 528
0xcb,0x00,0x02,0x06,0xfd,0x01,0x3e,0x01, 0xf1,0x01,0x0c,0x02,0x5a,0x03,0xd2,0xf9, // 544
0xc9,0xfc,0x57,0x04,0x13,0xfd,0x33,0xfe, 0xbd,0x00,0x29,0xf2,0xfe,0x05,0xc8,0xfe, // 560
0x45,0x02,0x97,0xf9,0xee,0xfc,0x46,0x00, 0xcf,0x05,0x43,0x04,0x24,0x00,0xa3,0xfd, // 576
0x21,0xfd,0xc5,0x00,0x56,0xff,0x00,0xff, 0x37,0x00,0xf5,0xfc,0x55,0xfe,0x4b,0x01, // 592
0x7e,0x09,0x74,0x0a,0xb4,0xfe,0xc2,0xff, 0x82,0x02,0xe2,0x07,0x1f,0xf7,0x51,0x01, // 608
0xcb,0xfe,0xb1,0x04,0xe6,0xff,0xa0,0xfd, 0x09,0x04,0xa1,0xfe,0x65,0x01,0xc1,0xff, // 624
0xca,0xfc,0xfc,0x00,0xba,0x0b,0x3c,0xfc, 0x70,0x00,0x40,0xf8,0x28,0x04,0x41,0xfc, // 640
0xb8,0x00,0x20,0x00,0x55,0x02,0x68,0xfe, 0x8b,0x02,0x67,0x03,0x19,0xf6,0x7e,0x02, // 656
0x6f,0x02,0x74,0x05,0x86,0xfd,0xd0,0x00, 0x3b,0x00,0xac,0x00,0x0b,0x05,0xee,0xfb, // 672
0x41,0x00,0xf9,0x0b,0xb0,0xf8,0xfa,0xff, 0xe2,0xfb,0xfd,0x04,0x6d,0x01,0xc1,0xfd, // 688
0xa4,0xff,0x2e,0x00,0x12,0x04,0x1d,0x03, 0xf1,0x01,0x26,0xf4,0x38,0x06,0x5b,0xfe, // 704
0xe8,0x02,0xf0,0xfa,0x58,0x02,0x2a,0xfd, 0xee,0x01,0x31,0xff,0x0b,0xff,0xc1,0xfd, // 720
0xf6,0xfe,0xd6,0xf7,0xd3,0x05,0xcc,0x00, 0xd2,0x03,0xd8,0xfb,0x18,0xfe,0x3c,0x00, // 736
0x71,0x02,0x3b,0x08,0x01,0xf9,0x89,0xff, 0xf2,0xff,0x70,0xf5,0xd2,0x05,0x43,0x00, // 752
0x41,0x05,0xc2,0xfb,0xf8,0xfc,0x5c,0xff, 0xbc,0x02,0x31,0x07,0xa2,0xfa,0x36,0xff, // 768
0xb3,0xfd,0x04,0x01,0xb6,0xf9,0x91,0x00, 0x3b,0xff,0x86,0x03,0xab,0xfa,0x77,0x08, // 784
0xce,0x00,0x0f,0x00,0x42,0x05,0x20,0xfd, 0xec,0xff,0x89,0xf8,0xd2,0x06,0xf2,0xff, // 800
0x35,0xff,0xd9,0xfb,0x53,0xf9,0x5f,0x02, 0x1e,0x00,0xfa,0xfe,0xc0,0xf8,0xc5,0x02, // 816
0xd4,0x01,0x01,0xfb,0x8b,0x02,0xe1,0x00, 0x50,0x05,0x82,0xfe,0x31,0x02,0x53,0xf8, // 832
0xad,0x00,0x3d,0x04,0x76,0xfe,0x86,0x00, 0x02,0xfd,0x37,0x09,0x37,0xf9,0x1b,0x01, // 848
0xba,0xfc,0xd5,0x03,0x8c,0x02,0x33,0x01, 0x18,0x03,0x26,0x01,0xc5,0x03,0xb6,0xff, // 864
0x03,0x01,0x50,0x07,0x57,0x05,0x66,0xff, 0x78,0xfd,0xca,0xfd,0x1c,0x03,0x59,0xfa, // 880
0x9e,0xfb,0x5e,0x01,0x39,0xff,0x27,0x02, 0xba,0x02,0x8b,0x0b,0x34,0xf8,0xe9,0x00, // 896
0xf3,0xfe,0x96,0x05,0xa3,0xff,0x12,0xfe, 0xbe,0x01,0x80,0xff,0x79,0x01,0xfe,0xfe, // 912
0x86,0xfe,0x58,0xf9,0x65,0x07,0x01,0xfe, 0x22,0xfe,0x7c,0xf9,0x76,0xfa,0x57,0x05, // 928
0xa5,0x02,0x46,0x01,0x29,0xfb,0xae,0xff, 0xe2,0xfa,0xd7,0x04,0x40,0xfc,0x6d,0xff, // 944
0xde,0xfd,0xd6,0x01,0x8e,0x06,0x96,0x02, 0x2b,0x04,0xe2,0xff,0x78,0x07,0x08,0xff, // 960
0x14,0xfe,0x9d,0xfa,0x20,0xfa,0x83,0x03, 0x50,0x05,0x9f,0x06,0xae,0xfd,0x04,0x08, // 976
0x37,0xff,0xdd,0x00,0xcb,0xfc,0x5b,0xf9, 0xf4,0xfe,0xfd,0xf8,0xbe,0xfc,0x26,0xff, // 992
0x7f,0x03,0xce,0xfc,0xfb,0xfd,0x2e,0x05, 0xcb,0x00,0x31,0x01,0xf3,0x05,0x86,0xfa, // 1008
0xd6,0xfe,0x34,0xfb,0xcc,0x04,0xe8,0xff, 0x79,0xfe,0x18,0xfc,0x4d,0xf8,0x02,0x06, // 1024
0x6a,0xfe,0x1f,0x00,0xed,0xf8,0xd5,0x00, 0x6d,0x02,0x96,0xf3,0xe3,0x00,0xaa,0x01, // 1040
0x05,0x06,0x06,0xfe,0x2d,0x00,0x3e,0xff, 0xc9,0xfe,0x6a,0x01,0x0d,0xfd,0x3b,0xfd, // 1056
0xe9,0x00,0x05,0x08,0x88,0xf6,0x11,0x01, 0xc7,0xfd,0xe8,0x04,0xeb,0xfe,0x01,0x00, // 1072
0xa3,0x03,0xdf,0xff,0xbc,0x02,0xa9,0xff, 0x9b,0x00,0xca,0xfd,0x39,0x02,0x16,0x02, // 1088
0x07,0x02,0x72,0xff,0xdf,0x02,0x1a,0xfc, 0xe1,0xfa,0x40,0x01,0x7a,0xfe,0x38,0x03, // 1104
0x06,0x01,0xf9,0x02,0xd1,0xfe,0x50,0xff, 0x8d,0x01,0xdd,0xfe,0x90,0x06,0xe2,0xfb, // 1120
0xbb,0x02,0x16,0x07,0x69,0x00,0x36,0xfc, 0xa3,0xfb,0xac,0x09,0xc9,0xfb,0x43,0x00, // 1136
0x92,0xfb,0x41,0x02,0x27,0x00,0xdf,0x03, 0x6a,0x03,0x6f,0x03,0x91,0x05,0xa0,0x00, // 1152
0x13,0x01,0x8f,0xf7,0x7a,0x07,0x52,0x00, 0xf6,0x04,0xe7,0xfb,0xee,0x01,0x40,0xfb, // 1168
0x3b,0xfe,0x1a,0x00,0xd3,0xfc,0x36,0xff, 0xb8,0xfb,0x90,0xfd,0xd5,0xfa,0x81,0x03, // 1184
0x71,0x02,0xd6,0x02,0xb7,0xfd,0x85,0x0a, 0x14,0xff,0x93,0x00,0x59,0xfc,0xca,0xfc, // 1200
0x44,0xfc,0x3f,0x06,0x76,0x01,0xe7,0xfd, 0x92,0x01,0xc9,0x00,0xf8,0x08,0x27,0xff, // 1216
0xc4,0x00,0xa6,0x00,0x27,0x07,0xef,0xf8, 0xf6,0x00,0x13,0xf4,0xae,0x03,0x42,0xff, // 1232
0xab,0x02,0xf7,0xfb,0x08,0xff,0xe4,0xff, 0x09,0xff,0x72,0xff,0x42,0x00,0xec,0x02, // 1248
0x98,0xff,0xe0,0x00,0xe8,0xfb,0xfb,0x02, 0xc3,0x01,0x00,0x02,0x72,0xf9,0xf3,0x08, // 1264
0xa9,0xfa,0x4c,0x00,0x32,0xfa,0x72,0xff, 0x0b,0x00,0x4d,0xfd,0xba,0x01,0x08,0x01, // 1280
0x5a,0x06,0x44,0xff,0x25,0xfd,0x48,0x05, 0xac,0xfa,0x26,0x01,0xb3,0xf9,0x08,0xfd, // 1296
0xc7,0xff,0x51,0x0c,0xba,0xf8,0xff,0xff, 0x12,0xfd,0xec,0x03,0xa8,0x01,0x3e,0xfe, // 1312
0xfd,0xfe,0x2e,0x00,0x43,0x03,0xec,0x02, 0xc5,0xfd,0x67,0x04,0xd3,0x04,0x51,0xfe, // 1328
0x68,0xfb,0xe1,0xfd,0x6c,0xfb,0x30,0x02, 0x6d,0x03,0x75,0x00,0x23,0xfb,0x02,0x05, // 1344
0x56,0xff,0xca,0xf5,0x31,0x01,0x6e,0xfe, 0x90,0xfe,0x7e,0xf9,0x0b,0xf9,0x91,0x05, // 1360
0x23,0x08,0x33,0x05,0x7b,0x01,0x83,0x00, 0x60,0x00,0x68,0xf5,0x6d,0x03,0x76,0x00, // 1376
0xf9,0x00,0x91,0xfb,0x92,0xf8,0x86,0x05, 0x9c,0xfe,0x85,0xfe,0x15,0xfd,0x42,0x01, // 1392
0x45,0x00,0x01,0x0f,0x59,0xfc,0x67,0x00, 0x11,0xff,0xa3,0x06,0x41,0x04,0x9f,0xfc, // 1408
0x84,0xf8,0x12,0xfb,0x65,0x01,0x1f,0x01, 0xae,0x03,0x9a,0x03,0xbb,0x01,0x2e,0xfd, // 1424
0xc1,0xfd,0xe5,0xfd,0x20,0x03,0x5e,0xf5, 0x79,0x01,0x1a,0xff,0xdf,0x04,0x04,0x04, // 1440
0xb2,0x02,0xff,0xfd,0x9d,0x02,0x8d,0xfe, 0x74,0x04,0x47,0xfe,0x9c,0x02,0xee,0xf8, // 1456
0x56,0xfd,0x0b,0x02,0xfe,0xfe,0x10,0xff, 0x9f,0x01,0x74,0x02,0x6c,0x03,0x45,0xff, // 1472
0x06,0x02,0x11,0xff,0xe9,0x03,0x02,0xfa, 0x19,0xfe,0x96,0x08,0xf4,0xfc,0x61,0xfc, // 1488
0x64,0xfe,0x2b,0x0c,0x30,0xfd,0x07,0x01, 0x56,0xfb,0xbd,0x03,0xc1,0x04,0x31,0xfd, // 1504
0x42,0xfe,0x88,0x00,0x31,0x05,0xbc,0x02, 0xba,0xfc,0xe8,0x07,0x97,0xfb,0x8b,0x00, // 1520
0xe2,0xfd,0xb4,0x03,0x1e,0x05,0x8b,0xfd, 0xb6,0x04,0x67,0x00,0x6c,0x04,0x3b,0xff, // 1536
0xac,0x00,0x2e,0x0e,0xb8,0xfb,0xc0,0xff, 0xc1,0xfe,0x68,0x05,0x6a,0x04,0xed,0xfd, // 1552
0x9f,0xf8,0xf4,0xf9,0x62,0x00,0x28,0x02, 0xfb,0x00,0xd4,0x00,0xe1,0x03,0x6f,0x00, // 1568
0xc2,0x01,0xab,0xff,0x8a,0x03,0x63,0xfa, 0x1e,0xfe,0x6f,0x05,0x2d,0xfc,0xfb,0xfd, // 1584
0x4a,0xff,0xc6,0xfe,0x25,0xff,0xef,0xfd, 0xe9,0xfc,0x84,0xff,0xcd,0xfa,0xf4,0x01, // 1600
0x7e,0xfa,0xfc,0xf9,0x0a,0xff,0x7d,0x08, 0x14,0xff,0x0e,0xf8,0x21,0x02,0x86,0xff, // 1616
0x81,0x00,0xf0,0xfa,0xef,0xf9,0x49,0x05, 0xe1,0x07,0x3f,0x09,0x7f,0xfd,0xc6,0xfd, // 1632
0xb7,0x02,0x9d,0xf4,0x35,0x05,0x9c,0xff, 0xa9,0x04,0xf3,0xfb,0xc0,0xff,0x5a,0xfd, // 1648
0x90,0xff,0xd9,0xff,0xc4,0xfd,0x91,0xfd, 0x32,0xfd,0xa6,0x08,0x20,0xfc,0x07,0xff, // 1664
0xfe,0xf9,0x2d,0x02,0xd9,0xfd,0x97,0x05, 0x56,0x02,0x5e,0xff,0xce,0x04,0x21,0x00, // 1680
0x0e,0xfe,0x6a,0xf7,0x07,0x01,0xc8,0xfc, 0x9c,0xfb,0x5f,0xf9,0xb1,0xfb,0x22,0x03, // 1696
0x7e,0x02,0xa8,0xfe,0x56,0x02,0x53,0x06, 0x65,0x01,0x58,0xfe,0xc7,0x00,0x86,0x01, // 1712
0xc6,0x00,0x10,0xff,0xe5,0x03,0xc0,0xfe, 0x04,0xfc,0x7f,0x06,0x07,0x05,0x45,0x05, // 1728
0xaa,0x00,0xbd,0xfd,0xc3,0x06,0xa0,0xfb, 0x66,0xfb,0xd3,0xf8,0x42,0x01,0x82,0xfa, // 1744
0xd3,0x03,0x4e,0xff,0xdc,0x03,0x83,0x03, 0x1a,0xff,0xda,0xf8,0x95,0x06,0xaf,0x00, // 1760
0xd2,0x03,0xbc,0xfb,0xd7,0xfe,0xbf,0x02, 0x72,0xfa,0x4c,0x02,0x6f,0xfd,0xf2,0xfe, // 1776
0xc5,0x00,0xb9,0xfb,0x0c,0x05,0x8e,0xff, 0xf8,0x01,0xb8,0xfa,0x02,0xfd,0x06,0x05, // 1792
0xc0,0xf9,0xa1,0x00,0x67,0xfc,0xf2,0x00, 0x15,0xfe,0xee,0xfa,0xc4,0x02,0xf0,0x01, // 1808
0x0a,0x04,0x90,0xfe,0x07,0xfd,0x7b,0x03, 0x26,0x01,0x5f,0x0c,0x08,0xfa,0xe5,0xfd, // 1824
0x15,0x01,0xf8,0xfb,0x6e,0x06,0xe5,0xff, 0xb8,0xfa,0x3c,0xfb,0xaf,0x01,0x8a,0xfb, // 1840
0x6b,0x01,0x58,0xff,0xd4,0xfb,0x15,0x08, 0x21,0xff,0x8c,0x00,0x10,0xfa,0x7b,0x00, // 1856
0xe1,0xfe,0x76,0x01,0x50,0xfb,0x36,0x03, 0xc8,0x02,0xfe,0xfb,0xe3,0x04,0xc7,0x01, // 1872
0x34,0x03,0xd2,0x00,0x42,0x07,0x37,0xfe, 0xee,0xfb,0x53,0xff,0x32,0x06,0xc9,0xf6, // 1888
0x6b,0x00,0x98,0xfc,0xd2,0xff,0x38,0x03, 0x12,0x01,0xac,0xfe,0x4b,0x04,0xb6,0xfe, // 1904
0x69,0x01,0x36,0xfd,0x2d,0x05,0x95,0xf9, 0x7d,0xfe,0x91,0x00,0x8a,0x02,0x4c,0xfe, // 1920
0x77,0xff,0x76,0x0d,0x92,0xf9,0xa6,0x01, 0x58,0xfc,0x99,0x04,0x60,0x02,0xa2,0xff, // 1936
0xc8,0xfe,0xc2,0xff,0x05,0x01,0x4a,0x03, 0x32,0x00,0x45,0xfe,0x5c,0x05,0xf9,0x00, // 1952
0x1d,0xfc,0xc2,0xfe,0xe8,0xf9,0x8e,0xff, 0xb6,0xff,0x9b,0xff,0x78,0xf7,0x81,0x06, // 1968
0x53,0x00,0xc6,0x0c,0x62,0xff,0xda,0x01, 0x13,0x03,0xd6,0x07,0x2c,0x06,0x4a,0xfc, // 1984
0xc5,0xfb,0xd9,0xfe,0xfe,0xff,0xcb,0xfa, 0xe2,0x01,0x29,0xf7,0x65,0x06,0xc7,0xff, // 2000
0x9a,0x00,0xe3,0xfd,0x9d,0xf6,0x04,0x04, 0x2b,0xff,0x13,0x00,0xac,0xf8,0x12,0xfe, // 2016
0x25,0x01,0x58,0xf1,0xea,0x06,0xd6,0xfe, 0xd9,0x01,0x01,0xfb,0xf3,0xfe,0xca,0xff, // 2032
0xed,0x03,0x2f,0x02,0x60,0xfd,0x91,0xfd, 0xa2,0xfe,0xbc,0xfe,0x7a,0xfc,0x46,0xff, // 2048
0x1d,0xff,0xc8,0x00,0xc0,0xfc,0x89,0x04, 0xe2,0x01,0x9d,0xf9,0xe4,0x03,0xc5,0x03, // 2064
0x2e,0x00,0xc4,0xff,0x74,0x05,0x0a,0xff, 0x83,0x03,0xc7,0xfd,0x59,0x03,0xcf,0xfb, // 2080
0xc9,0xfc,0x47,0x06,0x45,0xfe,0x16,0xfb, 0x71,0x02,0x6c,0xf7,0x8f,0xff,0x3e,0x02, // 2096
0x52,0x06,0xb2,0xfd,0x85,0xf9,0x90,0x00, 0xbc,0x00,0xd2,0x07,0x9f,0xfb,0x74,0xfe, // 2112
0xef,0xff,0xc9,0x07,0x97,0xfa,0x6d,0xff, 0x8c,0xff,0x38,0x05,0x9a,0x07,0x7e,0xfa, // 2128
0xb2,0x01,0x30,0x00,0x8b,0x05,0x6f,0xff, 0xf2,0xfd,0x30,0x0b,0xed,0xf9,0xb2,0x00, // 2144
0xc5,0xfa,0x03,0x05,0xc9,0xff,0x9c,0x02, 0xf8,0xff,0xd5,0x00,0x0f,0x05,0x0e,0x01, // 2160
0x4f,0xff,0x5a,0xf3,0x98,0x05,0xf6,0xff, 0x04,0x04,0x7e,0xfc,0x75,0xfe,0x80,0x03, // 2176
0x8f,0x00,0x58,0x00,0xca,0xfc,0xa6,0xfc, 0xc8,0xff,0x10,0x0e,0x11,0xfc,0x81,0x00, // 2192
0x24,0xfd,0x95,0x04,0xde,0x02,0x62,0xfc, 0xd5,0xfd,0xdc,0xfe,0xf8,0x01,0x12,0x02, // 2208
0x14,0x01,0x45,0xf6,0x3e,0x03,0xd1,0xff, 0xa7,0x05,0x7a,0xfc,0x67,0x00,0x6d,0xff, // 2224
0xde,0xfe,0x93,0x01,0x39,0xff,0xcb,0xfb, 0xff,0x01,0x13,0x04,0x8e,0xfe,0x60,0x03, // 2240
0x6a,0x00,0x63,0x06,0x3b,0x02,0xc5,0xff, 0x50,0xf3,0x97,0xf7,0xce,0xfe,0x99,0xfd, // 2256
0xcf,0xff,0x26,0xf6,0xad,0x07,0x3e,0x00, 0x24,0x04,0x66,0xfc,0x03,0xff,0xdb,0xff, // 2272
0x60,0x01,0x4a,0x04,0x0d,0xfb,0x46,0xfe, 0xb3,0xfe,0x63,0xfa,0xfa,0x06,0x53,0x00, // 2288
0xa4,0x03,0xa3,0xfc,0x09,0xfc,0xc0,0x01, 0x7b,0xfd,0xcd,0x08,0x38,0xfc,0x3b,0xff, // 2304
0x4f,0x00,0x85,0xfa,0x5c,0x09,0xca,0x00, 0xa8,0x01,0x91,0xfb,0x5b,0xfe,0xb1,0x00, // 2320
0x24,0xff,0xc5,0xff,0x97,0xf8,0x79,0xff, 0xfe,0xfc,0x34,0x04,0xde,0xfa,0xa7,0xfd, // 2336
0x92,0xfd,0x1a,0x01,0xff,0x03,0xa0,0x02, 0x9a,0x04,0x74,0xff,0xd5,0x09,0xa7,0xfe, // 2352
0x1f,0x01,0x27,0x08,0x13,0xfa,0x1f,0x00, 0x4c,0xfd,0x22,0x04,0x66,0x03,0xf0,0xfc, // 2368
0x2e,0xfd,0xc8,0xf8,0x4c,0x06,0x95,0x02, 0xee,0xff,0x1e,0x02,0xe0,0xf9,0xae,0xfd, // 2384
0x8f,0xfe,0x6f,0x00,0x10,0xfb,0x77,0x01, 0x89,0x02,0x27,0xfb,0x5c,0x08,0x51,0x03, // 2400
0x67,0xfd,0xfe,0xfb,0x72,0x05,0x0d,0xfd, 0xe6,0xff,0x53,0xfa,0x42,0xff,0x73,0x03, // 2416
0xce,0xfb,0xb1,0xfd,0x6b,0x01,0xf5,0x02, 0xec,0xff,0x45,0x08,0x5b,0xfe,0x9b,0x01, // 2432
0xd4,0xfc,0xb7,0x04,0x48,0x04,0xe1,0x00, 0xb7,0xf7,0xb6,0xf7,0x76,0x00,0xc4,0x00, // 2448
0x0e,0x00,0x91,0xfb,0x92,0xfc,0xb4,0xfd, 0x26,0xfe,0xce,0xfa,0x9b,0xf9,0x8c,0x04, // 2464
0xcc,0x08,0x16,0x06,0x51,0x04,0x46,0x01, 0x3e,0xfd,0x74,0x00,0x8c,0x04,0xdc,0xfc, // 2480
0x72,0xff,0x93,0xfe,0x3b,0x06,0x71,0xfa, 0x17,0x03,0x1b,0xff,0xf3,0x03,0x75,0xfd, // 2496
0x25,0xfe,0xea,0x0d,0x25,0xf9,0x7d,0x00, 0x2f,0xfd,0xb6,0x04,0x44,0x02,0xb0,0x00, // 2512
0xae,0xfe,0x98,0xff,0xe4,0x01,0x65,0x02, 0x5c,0xfe,0x18,0xfd,0xde,0xfd,0x6b,0xff, // 2528
0xd0,0xfd,0xa6,0xfe,0xcf,0xfa,0x31,0x07, 0xa5,0x02,0x86,0xfb,0xe5,0x00,0x5e,0x02, // 2544
0xa1,0xfd,0x37,0x03,0xba,0xfd,0x22,0x01, 0x2c,0x05,0x56,0x03,0xf0,0x07,0x74,0xfe, // 2560
0x39,0x01,0x15,0x01,0x29,0x05,0xbb,0xf8, 0x54,0xfd,0xbb,0xf7,0x3b,0x04,0x3d,0x00, // 2576
0x90,0x00,0x3d,0xfc,0xe0,0xfb,0xe0,0x07, 0x3e,0x03,0x88,0x03,0x5e,0xfb,0xb5,0xfc, // 2592
0xab,0x01,0xcb,0xf3,0x8a,0x06,0xa8,0xff, 0xb7,0x04,0x3f,0xfa,0x9b,0xff,0xb4,0xfe, // 2608
0x03,0x00,0xa7,0x00,0x86,0xfe,0xb6,0xfd, 0x03,0x00,0xa2,0x08,0xc0,0xf7,0x5e,0xff, // 2624
0x78,0xfe,0xda,0x03,0x67,0x03,0xff,0xfb, 0x40,0x02,0x5e,0x00,0x23,0x04,0x23,0x02, // 2640
0x6b,0x00,0x5f,0x08,0x3a,0xfc,0x07,0x01, 0x85,0x03,0x0b,0x07,0xb6,0x00,0xab,0x02, // 2656
0xd5,0xfc,0x53,0x01,0xa3,0x02,0x39,0xf7, 0xa8,0xfe,0xbc,0xfa,0x4d,0x01,0x2b,0x00, // 2672
0x6a,0x00,0x51,0xff,0x71,0xf8,0x7b,0x08, 0x31,0xff,0xc0,0xfe,0xe0,0xfd,0xe7,0xff, // 2688
0x4e,0x02,0x7b,0x02,0x98,0xfc,0xf6,0xfe, 0xf4,0x01,0xa5,0x01,0xf5,0x06,0x7a,0xf5, // 2704
0xec,0x00,0xcf,0xff,0xdd,0x04,0xbb,0x02, 0xac,0xfe,0x84,0x10,0x20,0xfb,0x9e,0x00, // 2720
0x6c,0xfc,0xc1,0x04,0x83,0x02,0xd3,0xff, 0x86,0xfe,0x94,0xff,0x81,0x01,0x9a,0x01, // 2736
0x55,0x00,0x8f,0x00,0x1f,0x06,0xfb,0xff, 0x48,0xfb,0x43,0xfc,0x54,0x00,0xa4,0xfa, // 2752
0x17,0xff,0x77,0x01,0x6b,0xfd,0xca,0x06, 0xf2,0xfb,0x51,0xff,0xec,0xff,0xef,0xfd, // 2768
0xc2,0xff,0xe9,0xfc,0xef,0xfa,0x67,0x07, 0x75,0x06,0xa6,0x07,0x46,0x02,0xa1,0xfd, // 2784
0xd6,0xff,0xfd,0x07,0x74,0xfd,0x62,0x01, 0xdf,0xff,0xce,0x04,0xf7,0x04,0x72,0xfe, // 2800
0x94,0x03,0xd8,0x01,0x52,0xfd,0x45,0xfa, 0xcf,0x00,0x75,0xf9,0x43,0x05,0xb2,0x00, // 2816
0x3b,0x02,0x06,0xfc,0x39,0xfd,0x5c,0x01, 0xc7,0xf8,0x34,0x01,0xcf,0xfe,0xba,0x01, // 2832
0x1b,0xff,0x8e,0x01,0xa5,0xf8,0xfd,0x01, 0x65,0x04,0xb5,0x06,0x6d,0xff,0xf2,0x06, // 2848
0xfc,0xfd,0x57,0x01,0xe7,0xfd,0x32,0xfa, 0x7c,0x02,0x37,0x07,0x13,0xf9,0x33,0x00, // 2864
0x9e,0xfc,0x95,0x03,0xb8,0x00,0x61,0xfd, 0x7e,0x06,0x02,0xfe,0x92,0x02,0x75,0xff, // 2880
0xff,0xfd,0xd4,0xfb,0x64,0x02,0xe5,0x00, 0x33,0xff,0xf4,0xfd,0x64,0xfb,0xef,0x09, // 2896
0x00,0x00,0x67,0x00,0x5a,0xfc,0xc9,0xfd, 0xbb,0xff,0x1c,0x08,0xe6,0xf9,0x3a,0xff, // 2912
0xfc,0xfa,0x49,0x04,0x1a,0x01,0x37,0xfe, 0xdc,0x02,0x55,0xfc,0x0a,0x05,0xff,0x01, // 2928
0x66,0xfe,0xcd,0xfd,0x99,0x04,0x86,0xfd, 0xba,0xfa,0x96,0xfc,0xfe,0xfc,0x71,0x02, // 2944
0x25,0xff,0x89,0xfb,0x71,0xfe,0xfb,0x06, 0xaf,0xfd,0xb0,0x01,0xa4,0xf6,0xb8,0xff, // 2960
0x63,0x01,0x63,0x02,0x0e,0xfa,0xd7,0x08, 0x82,0xff,0xe2,0xff,0x31,0x05,0x3e,0xfd, // 2976
0x87,0xfe,0xb7,0x0a,0x48,0xfa,0xfb,0xff, 0x77,0xfd,0xe7,0x03,0x2b,0x04,0xd9,0xfc, // 2992
0x1a,0x03,0xcc,0x00,0x65,0x04,0x64,0x00, 0xad,0x00,0x88,0x03,0x79,0xfe,0xb7,0xfe, // 3008
0x03,0x01,0x30,0x01,0xba,0x08,0x87,0xf7, 0x85,0x01,0x2a,0xff,0x0a,0x07,0x75,0x01, // 3024
0x2e,0x02,0x19,0xf3,0xb4,0x04,0x63,0xff, 0x28,0x04,0x34,0xfc,0x6c,0xfe,0x5b,0xfd, // 3040
0x35,0x02,0xa0,0xff,0xee,0xfd,0x9e,0xfe, 0x7a,0xfd,0x91,0xfc,0xfb,0xfc,0xc6,0xff, // 3056
0xda,0x03,0x55,0x03,0x83,0xfe,0x55,0x09, 0xa6,0xff,0xf6,0xff,0xd2,0xfe,0xae,0xf9, // 3072
0x36,0xff,0x8c,0x0d,0x69,0xf9,0xa5,0x00, 0xfa,0xfc,0x0e,0x04,0xec,0x00,0x45,0xfe, // 3088
0x01,0xff,0x96,0xff,0x52,0x04,0xb3,0x02, 0xb9,0x01,0x1f,0x0a,0x10,0xf9,0x00,0x01, // 3104
0xb5,0xff,0x9a,0x07,0xfd,0x04,0x17,0xfb, 0xa8,0xfc,0xbc,0xfd,0x9e,0x03,0xdc,0x00, // 3120
0x07,0xfe,0x71,0x03,0xff,0x03,0x87,0xff, 0xda,0xfe,0x06,0xfb,0xa8,0x02,0xaa,0xfa, // 3136
0x69,0x04,0x28,0x06,0x33,0x00,0x74,0x00, 0xed,0xff,0x2f,0x03,0x33,0x01,0xa3,0xff, // 3152
0x6a,0x03,0x74,0x00,0x5a,0x03,0xd2,0xfb, 0xd9,0xfd,0xc0,0x08,0x0d,0xfc,0x42,0xfc, // 3168
0x54,0xff,0x60,0x0b,0xc4,0xf9,0x28,0x00, 0x06,0xfc,0x8b,0x03,0x3c,0x03,0x2f,0xfe, // 3184
0x4a,0x02,0xac,0xff,0x99,0x02,0x46,0x02, 0xe4,0xff,0x64,0x02,0x95,0x01,0x72,0xff, // 3200
0x42,0x02,0xf7,0xff,0x4a,0x05,0x9e,0xfa, 0x06,0x01,0xb3,0x06,0x36,0xff,0x8b,0xfc, // 3216
0x25,0x02,0xba,0xf4,0xe6,0xff,0x13,0xff, 0x0b,0x02,0x7f,0xff,0x85,0x01,0xe9,0xfe, // 3232
0x30,0x06,0x64,0xff,0x2d,0xff,0xf9,0xfe, 0xd1,0x01,0x5a,0xf7,0xc1,0x03,0x9e,0x00, // 3248
0x49,0x03,0xa6,0xff,0xb6,0xf8,0x9d,0x03, 0x37,0xfd,0xb9,0xfe,0x4f,0xf8,0x11,0xfd, // 3264
0x81,0x03,0x81,0x09,0xe5,0xfd,0xdc,0x04, 0x4e,0xff,0x39,0x08,0xc3,0x00,0xec,0xfa, // 3280
0xc2,0xfd,0x04,0x00,0x71,0xfb,0x17,0x00, 0x90,0x00,0xf3,0x03,0xd3,0xfa,0x3e,0x00, // 3296
0x22,0x03,0x00,0x04,0x63,0x06,0xd7,0xfa, 0x47,0x01,0x2e,0x00,0x12,0x07,0x93,0xfd, // 3312
0x66,0xff,0x2d,0xf1,0x8d,0x04,0x33,0x00, 0x7f,0x03,0x23,0xfb,0xbd,0xfd,0x2d,0x03, // 3328
0x75,0x01,0x53,0x01,0xc5,0xfd,0x87,0xfd, 0x1c,0x01,0x35,0x06,0xb1,0xf9,0x6b,0x00, // 3344
0xf4,0xff,0xfa,0x05,0x3f,0x07,0x2b,0xfb, 0x3d,0x01,0x14,0x00,0xa6,0x07,0xff,0xfe, // 3360
0x65,0xfd,0xc6,0x04,0x4f,0x04,0xe8,0xff, 0x75,0xfb,0xbe,0x00,0x02,0xfd,0x5c,0x03, // 3376
0xcb,0xff,0x22,0xff,0x62,0xf9,0x98,0x04, 0x10,0xff,0xd7,0xfc,0x4e,0xfe,0xa5,0xff, // 3392
0x70,0xfe,0x54,0xfe,0x24,0xfb,0x62,0x06, 0xc4,0x01,0x32,0xfa,0x00,0x02,0xab,0x02, // 3408
0xb2,0xff,0x3f,0xfa,0xa3,0xff,0x74,0xfd, 0x26,0x01,0xb3,0xfe,0x7b,0x05,0xdd,0xff, // 3424
0x3e,0x05,0xb1,0xff,0x74,0x06,0x4d,0xfd, 0x4a,0x01,0xa2,0x05,0x6f,0x02,0x68,0x00, // 3440
0x6f,0x01,0x47,0x01,0xcf,0x03,0xd7,0xf9, 0x3a,0xfc,0xb9,0x05,0x5d,0xfc,0xeb,0xfd, // 3456
0x91,0x03,0xf4,0xf5,0x55,0x04,0x29,0xff, 0x3c,0x04,0x07,0xfc,0xb8,0x00,0xc9,0xfa, // 3472
0xa0,0xff,0x1a,0xff,0x42,0xfd,0x00,0x00, 0x64,0xfe,0xaa,0x05,0x04,0xfd,0x22,0x01, // 3488
0x7d,0xfc,0xe1,0x02,0x23,0x0c,0x88,0xfd, 0xc4,0xff,0x23,0xff,0x5e,0x05,0x9a,0x02, // 3504
0xa6,0xff,0xeb,0xfc,0x84,0x02,0x52,0x00, 0x32,0x00,0xd6,0xfd,0xd9,0xf7,0xd1,0x03, // 3520
0x05,0xfa,0x69,0xfc,0x86,0xf9,0xa5,0x03, 0xb3,0xff,0x65,0x01,0x05,0x00,0xd8,0xfd, // 3536
0xf6,0xfd,0x28,0x00,0x2b,0x04,0xc8,0xf9, 0x7c,0x03,0xc7,0xfb,0xf0,0x04,0x51,0x00, // 3552
0xe5,0x01,0x03,0x07,0x13,0xfa,0x47,0x01, 0xd9,0x01,0x7d,0x06,0xdc,0x06,0x5e,0xfa, // 3568
0xd3,0xfc,0xdc,0xfd,0xc1,0x01,0xc8,0xff, 0xac,0xff,0xd7,0xfd,0x9a,0x08,0x1f,0x03, // 3584
0xbb,0xfe,0xb5,0xfc,0x49,0x00,0x09,0xfc, 0xb8,0xfb,0x24,0x02,0xa2,0xf7,0x43,0x04, // 3600
0x3c,0xff,0x99,0x04,0xf5,0xfb,0x25,0xfe, 0x67,0x02,0x19,0x02,0x2f,0x0a,0xa7,0xfc, // 3616
0x72,0x00,0xb0,0xff,0xf2,0x08,0xf8,0xfa, 0x7e,0x00,0xdb,0x05,0x11,0xfe,0x3c,0xfe, // 3632
0x4f,0xff,0x4f,0x02,0xb5,0x09,0xde,0xf8, 0xca,0x02,0x3f,0xff,0xa1,0x07,0xa7,0x00, // 3648
0x6c,0x01,0xd1,0xf2,0xf8,0xff,0xe5,0xff, 0x16,0x00,0xf6,0xfb,0xa2,0xfd,0x56,0x01, // 3664
0xc7,0x06,0x1d,0x03,0xff,0x00,0x5d,0xff, 0xdb,0xfc,0x7a,0xfe,0xd3,0xfe,0x1b,0x02, // 3680
0xde,0x01,0x42,0x02,0x3d,0xfb,0xe2,0x0a, 0xe7,0xfc,0x80,0x00,0xa8,0xf9,0xe1,0xfc, // 3696
0x5b,0x06,0xe8,0x01,0xde,0x06,0x8c,0x05, 0x0e,0xfb,0x5d,0xff,0xd9,0x05,0x7d,0xfa, // 3712
0x96,0xf8,0xb6,0x0a,0x15,0x06,0x58,0xf6, 0xa2,0x13,0x39,0xf2,0xfd,0xf4,0x31,0x06, // 3728
0x83,0x04,0xb4,0x05,0xdf,0xfe,0xb6,0x09, 0x3b,0xff,0xe8,0xf7,0x49,0xfd,0x7a,0xf5, // 3744
0xa8,0x0d,0x9b,0x01,0x74,0xf3,0x51,0x04, 0x1c,0x02,0x40,0xfd,0x3a,0xf5,0x08,0xf9, // 3760
0x89,0xfb,0xcc,0xfc,0x01,0x06,0x81,0xfb, 0x6e,0x03,0x2a,0x08,0xbd,0xfa,0x55,0x03, // 3776
0xd9,0xf5,0xf1,0x0a,0x4b,0x0c,0xa8,0x05, 0x7f,0xf7,0x65,0x02,0x8b,0x00,0xa1,0xfb, // 3792
0xc0,0xf6,0x23,0xfa,0x21,0xf7,0xb5,0xfc, 0x30,0x03,0x68,0x0b,0x1f,0x08,0x0f,0xff, // 3808
0x12,0x0c,0x0f,0xfd,0x78,0x0d,0xf4,0x05, 0xfb,0x0a,0x0e,0x01,0x26,0x07,0x3a,0x01, // 3824
0x91,0x02,0x48,0x00,0xcd,0xf5,0x99,0xfe, 0xda,0xf3,0x85,0x05,0x5a,0x08,0x29,0x04, // 3840
0xed,0x00,0x82,0xff,0x7d,0xf6,0x64,0xf7, 0xe9,0x09,0x38,0xf8,0x4f,0x01,0x05,0xee, // 3856
0xa7,0x08,0xf0,0x02,0x3e,0x06,0x43,0x04, 0x47,0xf7,0xdc,0x05,0x51,0x11,0xa4,0xf6, // 3872
0x17,0x0d,0x66,0x02,0xdc,0xf8,0xfb,0x04, 0x21,0xfa,0x42,0x08,0x3c,0x09,0xda,0xf5, // 3888
0x42,0xf7,0xb6,0x04,0xcb,0xfd,0x23,0xfc, 0xd4,0x02,0x5a,0x0b,0x8e,0xf7,0x64,0x02, // 3904
0x4f,0xf5,0x2b,0xfa,0x11,0x07,0xeb,0xf9, 0x2d,0x0c,0xa1,0xfe,0x4e,0xf8,0x0c,0x02, // 3920
0x52,0x08,0xc5,0x01,0x00,0xf8,0x66,0xf3, 0x33,0x00,0x0b,0xfa,0x79,0xf7,0xe5,0xfa, // 3936
0x37,0x05,0xf3,0x03,0xe2,0xee,0x99,0xf9, 0x2b,0x08,0x81,0xf8,0xfe,0x04,0x5e,0x05, // 3952
0xbf,0x08,0x58,0xfa,0x8f,0x04,0xca,0xf8, 0x3b,0x04,0x4a,0x02,0x1c,0xf2,0x68,0xfa, // 3968
0x7b,0xff,0x4e,0x00,0xd0,0x05,0x81,0xfd, 0x00,0x00,0x00,0x00,0x00,0x00,0x00,0x00, // 3984
0x43,0x4d,0x44,0x00,0x20,0x03,0x80,0x00, 0x90,0x0f,0x00,0x00,0x10,0x0a,0x00,0x00, // 4000
0x01,0x01,0x00,0x02,0x0c,0x00,0x00,0x00, 0x00,0x00,0x00,0x00,0x00,0x00,0x00,0x00, // 4016
0x01,0x00,0x8c,0x00,0x01,0x00,0x01,0x00, 0x8c,0x00,0x01,0x00,0x00,0x00,0x00,0x00, // 4032
0x0d,0x00,0xff,0xff,0xff,0xff,0xff,0xff, 0x00,0x00,0x00,0x00,0x00,0x00,0x00,0x00, // 4048
0x00,0x00,0x00,0x00,0x00,0x00,0x00,0x00, 0x00,0x00,0x00,0x00,0x00,0x00,0x00,0x00, // 4064
0x00,0x00,0x00,0x00,0x00,0x00,0x00,0x00, 0x00,0x00,0x00,0x00,0x00,0x00,0x00,0x00, // 4080
0x00,0x00,0x00,0x00,0x00,0x00,0x00,0x00, 0x00,0x00,0x00,0x00,0x00,0x00,0x00,0x00, // 4096
0x00,0x00,0x00,0x00,0x00,0x00,0x00,0x00, 0x00,0x00,0x00,0x00,0x00,0x00,0x00,0x00, // 4112
0x43,0x4d,0x44,0x00,0x20,0x05,0x00,0x00, 0x10,0x10,0x00,0x00,0x10,0x02,0x00,0x00, // 4128
0x01,0x00,0x00,0x02,0x0d,0x0b,0x0d,0x0a, 0x00,0x00,0x00,0x00,0x00,0x00,0x00,0x00, // 4144
0x01,0x00,0x8c,0x00,0x01,0x00,0x01,0x00, 0x64,0x00,0x01,0x00,0x00,0x00,0x00,0x00, // 4160
0x0c,0x00,0xff,0xff,0xff,0xff,0xff,0xff, 0x00,0x00,0x01,0x00,0xc8,0x00,0x00,0x00, // 4176
0x00,0x01,0x02,0x00,0x18,0x01,0x00,0x00, 0x00,0x00,0x00,0x00,0x00,0x00,0x00,0x00, // 4192
0x00,0x00,0x00,0x00,0x00,0x00,0x00,0x00, 0x00,0x00,0x00,0x00,0x00,0x00,0x00,0x00, // 4208
0x00,0x00,0x00,0x00,0x00,0x00,0x00,0x00, 0x00,0x00,0x00,0x00,0x00,0x00,0x00,0x00, // 4224
0x00,0x00,0x00,0x00,0x00,0x00,0x00,0x00, 0x60,0x6d,0x00,0x00,0xc8,0x00,0x00,0x00, // 4240
0x62,0xfe,0xea,0x01,0xa8,0x01,0x03,0xff, 0x16,0x03,0x1b,0xfe,0x17,0x01,0xac,0xfe, // 4256
0x1c,0x01,0x02,0x04,0xda,0x03,0x25,0xff, 0x34,0x03,0xf8,0xfe,0xf3,0x01,0x7d,0xff, // 4272
0x1c,0x01,0xbe,0x00,0x46,0x01,0xbb,0xff, 0x6e,0x03,0x96,0x02,0xb9,0x07,0x4b,0xfe, // 4288
0x14,0xff,0x15,0xff,0xce,0xfc,0x90,0x00, 0x5e,0xff,0x5c,0x00,0x07,0xff,0xa1,0xff, // 4304
0xbc,0x02,0x8b,0x01,0x6f,0x00,0xc3,0xfc, 0x14,0xff,0x52,0x00,0xf9,0x01,0xbb,0x00, // 4320
0x90,0x01,0x51,0x01,0x98,0x02,0x61,0xff, 0x9d,0xfe,0xdf,0x00,0xe1,0xff,0x50,0x02, // 4336
0xb9,0x02,0x51,0x00,0xaa,0xfd,0xc5,0x01, 0x3f,0x02,0x73,0x05,0xbe,0xff,0x5e,0x00, // 4352
0x33,0x03,0x38,0x01,0x13,0x03,0x46,0x01, 0x81,0xff,0x0d,0x01,0x5b,0x03,0xb4,0xf8, // 4368
0xfa,0xfa,0xb1,0x01,0x54,0x00,0x96,0x00, 0xcf,0xfd,0x34,0xff,0x75,0x00,0xc5,0xfc, // 4384
0xd1,0x02,0x00,0x04,0x21,0x00,0x35,0x02, 0xcf,0xfe,0x7c,0x00,0xcd,0xff,0xa1,0xfe, // 4400
0xf2,0x00,0x7e,0x00,0x55,0xff,0x08,0x00, 0x22,0xff,0xa3,0xf7,0xc1,0x00,0xf6,0xfc, // 4416
0x19,0x01,0xca,0xfe,0x17,0x00,0xd3,0xfe, 0x2c,0xff,0xba,0xff,0x19,0xfe,0xa6,0x01, // 4432
0x6c,0xfc,0xa0,0xfe,0xac,0xff,0xbc,0xff, 0x6c,0x0c,0x71,0x04,0xd6,0xfd,0x52,0x01, // 4448
0xe3,0xfd,0x95,0xfe,0x95,0xff,0xa6,0xfe, 0xb9,0xff,0x46,0x01,0xcc,0x01,0x64,0xff, // 4464
0x2c,0xfe,0xf0,0xf7,0xfc,0x02,0x82,0x00, 0xc6,0x04,0x1f,0x03,0x8b,0x00,0xf7,0x01, // 4480
0x5f,0xfd,0x88,0xff,0xdf,0xfe,0x8b,0xfe, 0x4f,0x00,0x0c,0x00,0xcc,0x01,0x45,0xfd, // 4496
0xaf,0xfe,0xa5,0x01,0x10,0xff,0xef,0xff, 0x25,0x00,0x4e,0xff,0x99,0xff,0xc1,0x06, // 4512
0x83,0xff,0xab,0xff,0x11,0x01,0x81,0x00, 0xab,0xff,0x08,0x02,0x7d,0xfb,0xc4,0xff, // 4528
0x78,0x01,0xbe,0xf7,0x54,0x01,0xd2,0x02, 0x6e,0x00,0x9b,0xfa,0xe3,0x00,0xcc,0xfd, // 4544
0xc2,0xff,0x8c,0x00,0x41,0x09,0x1c,0xfb, 0x86,0x01,0xe7,0xff,0xfe,0x00,0xa6,0xff, // 4560
0xef,0xff,0xe8,0x04,0x56,0x05,0xe0,0xfe, 0xd0,0xfd,0x01,0x00,0xce,0xff,0x55,0x01, // 4576
0x57,0x01,0x63,0xfe,0x44,0xfe,0x09,0x03, 0x3c,0x01,0x77,0x06,0xc2,0xfd,0x39,0xff, // 4592
0x70,0x01,0x62,0x00,0x36,0x03,0x8a,0x00, 0x10,0x0a,0x3b,0xff,0xc8,0xfd,0xa5,0xfc, // 4608
0x3a,0x04,0xbf,0xff,0xf2,0x01,0x8f,0x00, 0xd1,0x0b,0x73,0x01,0x6c,0x04,0x30,0xff, // 4624
0xf2,0xff,0x03,0xfe,0xe2,0xfc,0xa8,0x03, 0x2f,0x00,0x3c,0x00,0x89,0xff,0x1b,0x03, // 4640
0xb4,0x00,0x49,0x03,0xdf,0xff,0x98,0xff, 0x50,0xfc,0x3a,0xff,0xeb,0x11,0xb8,0xff, // 4656
0x64,0x00,0x8e,0xfd,0x83,0xf4,0xc2,0xfe, 0x67,0x00,0x0c,0x01,0x7f,0xff,0x4b,0x09, // 4672
0xb1,0xf7,0x46,0x07,0xcb,0x00,0x6e,0x02, 0x97,0xfd,0xd1,0x05,0x3b,0xff,0xe6,0x00, // 4688
0x56,0xff,0xaf,0xfe,0x57,0x01,0x9e,0x02, 0x04,0xff,0xcb,0xfd,0xce,0x13,0x8c,0xfe, // 4704
0x69,0x00,0x40,0xfe,0xda,0xf9,0x7c,0x01, 0xc2,0xff,0xc6,0xfe,0xc5,0xfd,0xdd,0x07, // 4720
0x1c,0x00,0xea,0x01,0x21,0x00,0xa3,0x03, 0x2a,0x01,0x16,0xfc,0xc6,0xff,0x6f,0xfd, // 4736
0x17,0xff,0x74,0x02,0x42,0x02,0x61,0xfe, 0x7b,0xe8,0x26,0x01,0x2d,0x12,0x1b,0x03, // 4752
0xc2,0x01,0x68,0x00,0xdf,0x03,0x2c,0x00, 0x50,0xf7,0xaf,0xfd,0xc7,0xff,0x7e,0xff, // 4768
0x90,0xf9,0xdc,0xff,0x46,0xfe,0xa0,0x00, 0xf2,0xfc,0x02,0x01,0x5a,0xfb,0xc5,0x00, // 4784
0x8b,0x01,0x28,0xfd,0xde,0x01,0xd6,0x00, 0x13,0x00,0xb7,0xff,0x27,0xfd,0xd9,0x02, // 4800
0xc6,0x00,0xcd,0xfe,0x53,0x00,0x32,0xfe, 0x3f,0x03,0xdb,0xfe,0x57,0x00,0x5f,0x00, // 4816
0x7f,0x04,0x78,0x02,0x29,0x00,0xd7,0xff, 0x0f,0x06,0xc0,0x00,0x65,0xfc,0xa8,0xfe, // 4832
0xe7,0xfc,0x9d,0xff,0x54,0x00,0x22,0xff, 0x32,0x00,0x2f,0xff,0xb7,0xff,0x8e,0x00, // 4848
0x72,0x00,0xd9,0xff,0x4d,0x00,0xa4,0x02, 0x72,0xff,0xd3,0xfe,0x15,0x01,0x38,0xfe, // 4864
0x54,0x00,0x41,0xfb,0x33,0xff,0xd0,0xfc, 0xba,0x01,0x33,0xfe,0xbb,0xfd,0xda,0x00, // 4880
0xc4,0xfc,0xf3,0x00,0x35,0x00,0x17,0xfe, 0x80,0x01,0xbf,0x00,0x0e,0x03,0x25,0x04, // 4896
0xbc,0xfa,0xd0,0x00,0x50,0xff,0xab,0xff, 0xea,0x00,0x75,0x00,0xe3,0x00,0xee,0x00, // 4912
0x76,0x00,0x30,0xfe,0x4e,0x00,0xb3,0xff, 0x08,0xff,0x52,0x00,0x41,0xfe,0x28,0x00, // 4928
0xa1,0x00,0x27,0x02,0x70,0xfc,0xc2,0xfe, 0x5c,0x00,0x95,0x02,0x39,0x00,0xe5,0xfd, // 4944
0x61,0x05,0x75,0x01,0x33,0x00,0x68,0xfc, 0xcf,0x02,0xa9,0x00,0x6a,0xff,0xac,0xfe, // 4960
0xd8,0x01,0xe0,0xfd,0x41,0x01,0xf8,0xfe, 0x2c,0xff,0x4a,0x00,0xdd,0x00,0x62,0xff, // 4976
0x96,0xfe,0xc3,0x03,0x26,0xfe,0xee,0xfc, 0x73,0x00,0xfe,0x00,0xaf,0x01,0x18,0xff, // 4992
0x55,0x01,0xfa,0xfe,0x24,0xff,0x93,0x01, 0x78,0xfe,0xb1,0xfe,0xd0,0xff,0x66,0xfe, // 5008
0xca,0xff,0x99,0x00,0x01,0xfe,0xc2,0x00, 0x2e,0x00,0x64,0x00,0x67,0x00,0xf7,0xfe, // 5024
0x5c,0x02,0x2e,0x01,0x37,0xfd,0x3e,0x00, 0x7a,0x00,0x5b,0x01,0xe1,0xfe,0x48,0x01, // 5040
0x11,0xfe,0x11,0x05,0xc9,0xfe,0x6c,0x00, 0x57,0x00,0x71,0x00,0x78,0x00,0xa4,0xff, // 5056
0x98,0xfe,0xf1,0x04,0x27,0x00,0xe8,0xfa, 0x5a,0x00,0x07,0x03,0x94,0xff,0xfa,0xfd, // 5072
0x7a,0x01,0x59,0x00,0x76,0xff,0xbd,0xfe, 0x12,0xfe,0x55,0x00,0x61,0xf6,0x25,0x01, // 5088
0x29,0x00,0x6a,0xfe,0x0f,0x00,0x19,0xff, 0x7b,0xff,0xfe,0xf2,0xe7,0x00,0x68,0x00, // 5104
0x23,0xfe,0x14,0x02,0x79,0x0e,0x11,0xfd, 0xf6,0xfd,0xe6,0xfa,0x60,0xfd,0x30,0xff, // 5120
0xda,0xfd,0x9a,0x01,0x16,0x00,0x02,0x02, 0x30,0xfe,0xe8,0x00,0x85,0xfd,0x85,0xfe, // 5136
0x76,0x00,0x19,0xfe,0xe2,0x00,0x0e,0x02, 0xfc,0x00,0xa7,0x05,0xf3,0xfc,0xa4,0xfe, // 5152
0x29,0xff,0x6c,0xfd,0x9c,0x01,0xb4,0xfe, 0x24,0x11,0xd3,0x00,0xdd,0xfb,0x3a,0xfd, // 5168
0xf5,0x07,0x21,0x02,0xe5,0x00,0x92,0xff, 0x3e,0x07,0xa1,0x01,0xbf,0x08,0x6a,0xff, // 5184
0x52,0x00,0xd5,0xfb,0x81,0xfc,0xc2,0x02, 0x73,0xff,0x10,0xff,0xda,0x00,0xee,0x00, // 5200
0x7b,0x01,0xc9,0xfe,0x6d,0x00,0xc7,0x00, 0xfa,0xff,0xbc,0x01,0xea,0x12,0xc4,0x01, // 5216
0xde,0xff,0x7c,0xfe,0xca,0xee,0xa6,0x01, 0x00,0x00,0x23,0xfd,0x8a,0x00,0x0d,0x0b, // 5232
0xed,0xf1,0x78,0x08,0xc7,0xfd,0x32,0x02, 0xfc,0xf9,0xea,0xff,0x6b,0xfd,0x04,0xff, // 5248
0x3e,0x03,0x73,0x00,0x76,0xff,0xfe,0x03, 0x4f,0xfe,0xb2,0xfe,0x95,0x12,0xf1,0xff, // 5264
0xb4,0xff,0x8b,0xfa,0xe9,0xf8,0xcb,0x01, 0x04,0x01,0xe6,0xff,0xbb,0x00,0x4a,0x08, // 5280
0x6c,0x00,0x0f,0xfe,0x79,0x00,0x46,0x00, 0xbe,0xff,0xa9,0xff,0x8f,0xfe,0x94,0x02, // 5296
0x1e,0x00,0x89,0xfe,0x49,0x01,0xba,0x00, 0xc6,0xf2,0x4e,0xff,0xce,0x14,0xfa,0x02, // 5312
0x86,0x01,0xdd,0x00,0x8e,0x05,0x6f,0x01, 0x59,0xfc,0x64,0xfe,0xe3,0x00,0x2e,0x00, // 5328
0x25,0xf5,0xf1,0xff,0xb3,0xff,0x4f,0xff, 0x5d,0xfe,0x15,0x00,0xcd,0xfb,0x20,0x01, // 5344
0xc9,0x00,0x01,0xff,0x0a,0x02,0x86,0xff, 0x48,0xff,0x13,0xff,0xa4,0xfb,0x27,0x00, // 5360
0x9e,0x00,0x9e,0xff,0x5b,0xfc,0xd5,0xff, 0xcf,0xfd,0x50,0xff,0xed,0x00,0x42,0xff, // 5376
0xca,0xff,0x0f,0xfb,0x17,0x00,0x11,0x09, 0xf8,0xfd,0x45,0x01,0xb7,0xff,0xe1,0xfe, // 5392
0x9e,0xfc,0x98,0xfa,0xf4,0x02,0xad,0x00, 0x95,0xfd,0x91,0xff,0xfc,0xfc,0xee,0x06, // 5408
0xdd,0xfd,0x63,0x01,0x74,0x00,0xa9,0xff, 0xe3,0xff,0x85,0xfd,0x20,0x07,0xb4,0xfd, // 5424
0xe1,0xff,0xc6,0x00,0x7b,0xfa,0x21,0x03, 0x6a,0x00,0x44,0xfe,0x28,0x01,0xf3,0x01, // 5440
0xc6,0x01,0x76,0xff,0x68,0xfc,0xc8,0xff, 0x26,0x03,0xe7,0xfb,0x72,0xfd,0x6b,0xfd, // 5456
0xfb,0xff,0xb5,0x00,0x17,0x03,0x48,0xfe, 0x2d,0x00,0xef,0xfc,0x97,0xfb,0x89,0x07, // 5472
0x08,0xfe,0xdb,0xff,0xa3,0xfd,0x87,0xf9, 0x28,0xfe,0xab,0xfd,0xd9,0xfa,0x36,0x06, // 5488
0x85,0xfd,0xd9,0xfe,0xd7,0x00,0x2a,0xff, 0xf6,0x01,0x62,0xff,0xb4,0xfc,0xef,0x01, // 5504
0x56,0xfd,0x08,0xfc,0xea,0xff,0x24,0x02, 0x72,0xfe,0x85,0x00,0xdf,0xfa,0x96,0x01, // 5520
0xa2,0xf8,0xec,0xfa,0x13,0x01,0x76,0x00, 0x3a,0x04,0x7a,0x04,0xbb,0xfd,0xc7,0x01, // 5536
0x7d,0xff,0x9d,0xff,0x10,0x02,0xbf,0x01, 0x40,0x00,0xd1,0xfe,0x96,0xfc,0xed,0xff, // 5552
0x72,0x04,0x59,0xff,0x75,0xff,0x24,0x02, 0x66,0xf9,0xf7,0xff,0x74,0x01,0xfc,0xfc, // 5568
0x44,0x04,0xe4,0x06,0xae,0xff,0xa4,0x07, 0xba,0x00,0x1b,0x04,0xa9,0x01,0xbf,0x00, // 5584
0x5a,0xfe,0x56,0x03,0xed,0xfe,0x6b,0x01, 0x7b,0xfd,0xda,0xfc,0x73,0x01,0xbd,0xfe, // 5600
0x08,0x01,0xe8,0xff,0x71,0x02,0x82,0x00, 0xc6,0xfd,0xbb,0xff,0x35,0x00,0x36,0x02, // 5616
0xd0,0xff,0xc0,0xfd,0xf3,0xfd,0x93,0xff, 0x8e,0x00,0x83,0x01,0x43,0x01,0xd7,0xfa, // 5632
0x1a,0xff,0xc1,0xff,0xd9,0xff,0x62,0x02, 0x65,0x01,0x8f,0xff,0x64,0x01,0x39,0xff, // 5648
0x16,0x00,0xca,0x00,0x3d,0xff,0x57,0x01, 0x0e,0x00,0xcc,0x02,0xfa,0x05,0x73,0x00, // 5664
0xc4,0x09,0x0a,0xfb,0xe2,0xfc,0x0e,0x02, 0x95,0x02,0xa7,0x04,0xb6,0xf7,0x62,0x00, // 5680
0x22,0x04,0x32,0xff,0xbc,0x01,0x68,0xff, 0xdc,0x02,0xfa,0xfe,0xfb,0xfc,0x8f,0xfe, // 5696
0x2d,0x00,0x2d,0xff,0x1e,0x00,0x0c,0x00, 0xd3,0x00,0x4e,0x03,0x47,0x02,0x66,0xf8, // 5712
0x1c,0x02,0x46,0x00,0xdb,0xfe,0xc3,0x02, 0x73,0xfb,0x0f,0x01,0xe9,0xfe,0x47,0xff, // 5728
0xae,0xff,0x63,0x00,0x53,0x02,0x25,0x00, 0xd0,0xff,0x30,0x00,0x6e,0xfe,0x25,0x00, // 5744
0xa7,0xfc,0xbb,0x05,0x1e,0x01,0xda,0xfd, 0x60,0xfe,0x82,0xff,0xea,0x01,0xb1,0xff, // 5760
0xca,0xff,0xd5,0x01,0x86,0x04,0xb6,0xfd, 0x55,0x06,0xcb,0x01,0x01,0xfd,0x35,0x00, // 5776
0x6d,0x02,0x0a,0x00,0x85,0x04,0xac,0xff, 0x31,0x00,0x55,0x02,0x81,0xff,0x47,0xfd, // 5792
0xd5,0x01,0x11,0x00,0x89,0x01,0x58,0xfe, 0xe4,0x05,0x53,0x00,0xdb,0x01,0xff,0xfd, // 5808
0xf7,0xf9,0xa4,0xfc,0x35,0xff,0x0d,0xfc, 0x1b,0x00,0xc3,0x00,0x5b,0xfe,0x62,0x00, // 5824
0xb7,0x01,0x8f,0x04,0x2a,0x02,0x59,0xfe, 0x7c,0x00,0xfb,0x00,0xc9,0xfd,0x33,0xff, // 5840
0x0b,0x03,0xad,0x04,0x07,0x02,0x9e,0xff, 0xe9,0xfe,0x3d,0x00,0xc4,0x00,0x76,0xff, // 5856
0xb9,0xfe,0xe2,0xf2,0x1b,0x00,0x04,0xff, 0x97,0xff,0xf3,0xfc,0x70,0xfc,0x03,0xfd, // 5872
0xf7,0x05,0xd3,0xff,0xff,0xfe,0x0d,0x00, 0xd1,0xff,0x7f,0xff,0x48,0x00,0xf2,0xfe, // 5888
0xa3,0xff,0xff,0xff,0xa8,0x02,0x5c,0x00, 0x0d,0x00,0xb0,0x00,0x33,0xff,0x65,0x00, // 5904
0xf6,0xfd,0xbc,0x00,0x4b,0xfd,0xe0,0x02, 0x28,0x01,0xf0,0xfe,0x6e,0xfe,0x31,0x01, // 5920
0x85,0x01,0xa3,0x00,0xea,0xfd,0x5d,0x00, 0xe6,0xfc,0xb2,0xf8,0xa6,0x01,0x7b,0x00, // 5936
0x20,0xfe,0x0d,0xfa,0x06,0x00,0x29,0xfe, 0x6e,0x0b,0x45,0xfe,0x99,0xfe,0xd3,0xfd, // 5952
0xa1,0xff,0x34,0xff,0x69,0x00,0x98,0x00, 0x74,0xf7,0xbf,0xfd,0x69,0x02,0x85,0xff, // 5968
0xe2,0x01,0x64,0x02,0xe6,0xff,0xd7,0xff, 0xc7,0x01,0xad,0xfb,0x58,0xfd,0x85,0xff, // 5984
0x32,0xfd,0x70,0x04,0x45,0xff,0xe8,0x03, 0xb6,0x01,0xd8,0xff,0xfb,0x02,0x9e,0x00, // 6000
0xbf,0xfe,0x12,0x00,0x4f,0xfd,0x20,0xff, 0xe2,0x03,0xf8,0xfa,0x05,0xf9,0x25,0xfe, // 6016
0xad,0xff,0x4d,0x00,0x3e,0x02,0x84,0xfe, 0xa1,0xff,0x61,0x02,0x5b,0xfc,0x85,0x08, // 6032
0xa7,0xff,0x2b,0xfb,0x39,0xff,0x42,0x01, 0xac,0x04,0x07,0xff,0x03,0x00,0x8a,0x00, // 6048
0xa4,0x02,0x87,0x00,0xb6,0x03,0xa2,0xfe, 0xe7,0xff,0x4e,0x02,0x31,0xfd,0x16,0x01, // 6064
0xaf,0xfd,0x57,0xf9,0x2a,0xff,0xce,0x04, 0x5c,0x00,0x76,0x00,0x74,0xfd,0x36,0x02, // 6080
0x02,0x02,0xf1,0xfe,0x83,0x04,0x6a,0x02, 0x6c,0xfd,0xda,0xff,0xa7,0x01,0x6b,0x05, // 6096
0xe0,0xfb,0xa9,0x01,0x4e,0x00,0xb6,0x02, 0xaf,0xff,0x03,0x04,0x8c,0xfd,0x83,0xf9, // 6112
0xb6,0xff,0x13,0x01,0xb5,0xf6,0x31,0x02, 0x42,0xff,0x33,0x06,0x67,0x00,0x11,0x01, // 6128
0x9e,0xff,0x7d,0xfe,0x73,0x05,0xb4,0xff, 0x62,0xff,0x35,0x00,0x08,0x00,0x82,0xfc, // 6144
0xde,0xf9,0x32,0x02,0xdc,0xff,0xe0,0xff, 0x16,0xff,0xad,0xfd,0xa9,0xff,0x23,0xfd, // 6160
0xf1,0xf9,0xc9,0x02,0xb7,0xff,0x86,0xff, 0xf0,0xfe,0xa9,0xfe,0xe5,0x02,0x18,0x02, // 6176
0xc5,0x01,0xa7,0xfd,0x8c,0xfa,0x57,0x02, 0xd0,0x00,0x7a,0xfe,0x8f,0x01,0x51,0x01, // 6192
0x6a,0x01,0x11,0x00,0xec,0xfc,0x6b,0x08, 0x54,0x00,0x38,0x01,0x79,0x07,0x8e,0x00, // 6208
0xf5,0xfe,0x14,0x03,0x7f,0xff,0xe5,0x00, 0x36,0xff,0x33,0x0b,0x0b,0x03,0x5c,0xff, // 6224
0x02,0x02,0x12,0xff,0x11,0xf6,0x27,0x05, 0x91,0x05,0xfc,0x0c,0x0a,0xfd,0x2d,0xff, // 6240
0x4e,0x02,0x5c,0xfe,0x33,0x00,0xd4,0xff, 0x70,0x01,0xbd,0xfd,0xd4,0xff,0x91,0x00, // 6256
0xa3,0x00,0x66,0x00,0x20,0xfc,0xe5,0x01, 0xaa,0xfe,0x8a,0xfb,0x3a,0x04,0x78,0x00, // 6272
0x71,0x00,0xc0,0xff,0x4d,0xff,0x76,0x01, 0x04,0xf3,0x3c,0x01,0xdc,0x01,0x99,0x00, // 6288
0x00,0xfb,0x4b,0x00,0x9e,0x00,0x3b,0xff, 0x13,0xfc,0x80,0xff,0xf5,0xf8,0xcd,0xff, // 6304
0xbe,0xfe,0x28,0x05,0xe6,0x05,0x3e,0xfa, 0x52,0xfe,0x0b,0xff,0xf5,0x00,0x57,0x01, // 6320
0xf2,0x00,0xad,0x03,0x0b,0xff,0x6c,0xfe, 0x7f,0x00,0x30,0x00,0x1d,0xf2,0xa4,0xff, // 6336
0x7d,0x01,0xc8,0x02,0xb6,0x0c,0xb3,0x00, 0xcd,0x00,0x41,0x04,0xf6,0xfe,0x56,0xf4, // 6352
0x8f,0x0b,0x0f,0xfb,0xbe,0x02,0x18,0xfe, 0x0c,0x0c,0x67,0x02,0x08,0x02,0x26,0xfd, // 6368
0x69,0xf8,0x2e,0xff,0x6c,0xff,0x52,0xf9, 0x4f,0x00,0x11,0x00,0xc1,0xf2,0x53,0x00, // 6384
0xab,0x01,0x16,0x06,0xbf,0x06,0x12,0xfd, 0xaf,0x00,0xc0,0x00,0x65,0xff,0x65,0xfc, // 6400
0xc2,0xfe,0x26,0x04,0xdb,0x01,0x95,0xff, 0xc7,0x00,0x84,0xfe,0x35,0x01,0x88,0xfa, // 6416
0x57,0xff,0xe9,0xfd,0xf0,0xfd,0xf6,0xff, 0xee,0x09,0x45,0x00,0xbd,0xee,0x13,0xfd, // 6432
0x41,0x00,0xc1,0xff,0x2a,0xfd,0x54,0x00, 0x2b,0x02,0x1b,0x01,0xba,0x00,0xc8,0xff, // 6448
0x49,0x05,0xa9,0xff,0xf1,0xff,0xfc,0xff, 0xfa,0x00,0xeb,0xff,0xf8,0x05,0xcd,0xfd, // 6464
0x6a,0xff,0x94,0x00,0xee,0xfe,0x23,0x01, 0x71,0x00,0xcb,0xff,0x00,0x02,0x74,0x00, // 6480
0xbe,0xfe,0xb8,0x01,0xc3,0xf6,0xfe,0xff, 0x60,0x00,0x3a,0xf8,0xe0,0x01,0xcb,0xff, // 6496
0xb2,0xff,0x46,0xf2,0x80,0xfe,0xc7,0xff, 0xca,0x00,0x02,0x00,0xef,0x09,0x05,0xf9, // 6512
0xdf,0xfb,0x83,0xf9,0x7e,0xfc,0x5e,0xfe, 0xcb,0xfd,0xfb,0x01,0x04,0x05,0xbb,0x01, // 6528
0x8c,0xff,0x98,0xfe,0x77,0xff,0x4a,0xfe, 0x47,0x01,0xe6,0xfd,0x19,0x00,0x3f,0x01, // 6544
0x01,0x02,0x7e,0x06,0x2e,0xff,0x71,0xfe, 0x23,0x00,0x89,0xff,0x3e,0x01,0xc6,0x01, // 6560
0xf4,0x09,0x35,0x00,0x4e,0xfc,0x11,0xfe, 0x63,0x08,0xc8,0x01,0xcb,0xff,0xe2,0x00, // 6576
0xc7,0x08,0x74,0x00,0x7e,0x0a,0x05,0x00, 0x2a,0x00,0x1a,0xfb,0x3d,0xfd,0x4d,0x00, // 6592
0xe3,0xfe,0x61,0x00,0x1d,0x00,0xd3,0x01, 0xc9,0x00,0x13,0x01,0xbe,0xff,0xfb,0xfd, // 6608
0xe0,0xfe,0xbc,0xff,0xda,0x0e,0x63,0x00, 0x35,0x00,0x78,0xfe,0x21,0xf5,0x0c,0xff, // 6624
0x54,0x01,0x8f,0xfe,0x28,0x00,0x08,0x09, 0xca,0xf6,0xbb,0x07,0x96,0xff,0x0b,0x03, // 6640
0xce,0xfd,0x40,0xff,0xc2,0x00,0x0a,0xff, 0x66,0x01,0xb9,0xfd,0x26,0x00,0x24,0x07, // 6656
0xc4,0xfd,0xcb,0xfe,0x5f,0x10,0xde,0xff, 0x4c,0x00,0x3a,0xfe,0x63,0xf9,0x9f,0xfe, // 6672
0xe9,0x00,0x5b,0xff,0x9a,0xfd,0x92,0x08, 0x9f,0x00,0x2b,0xfe,0x69,0x00,0x70,0x01, // 6688
0x78,0x00,0xce,0xff,0x28,0x00,0x7b,0xfe, 0x2f,0x00,0xb4,0xfd,0x83,0x00,0xdd,0xff, // 6704
0xc5,0xec,0xe9,0xfe,0x25,0x13,0x06,0x01, 0xa1,0x00,0x5d,0x00,0x10,0x01,0x0a,0x02, // 6720
0x6a,0xf6,0xea,0xfb,0x37,0x02,0x0d,0xff, 0xcd,0xf3,0x8f,0xff,0xdf,0x01,0x66,0x00, // 6736
0xf6,0xfc,0x72,0x00,0xb2,0xfa,0x0c,0x02, 0x62,0x01,0xdc,0xfc,0xac,0x00,0x94,0x00, // 6752
0x03,0xff,0xe4,0xfe,0x3d,0xfb,0xcd,0xff, 0x94,0x02,0xb8,0xfe,0x88,0xfb,0xed,0xfe, // 6768
0xa8,0xfc,0x8b,0x01,0x69,0xfe,0xc3,0xfe, 0x9b,0xfc,0x53,0xf9,0xca,0xfa,0xb1,0xff, // 6784
0xaa,0x01,0x17,0x00,0xbc,0x00,0xb7,0xff, 0x8b,0xfd,0x63,0xfb,0x63,0xfe,0x99,0xfd, // 6800
0x66,0xfe,0xbc,0xfd,0x05,0xff,0x46,0x00, 0x70,0xfb,0x29,0xfe,0xb1,0xfd,0xb9,0xfc, // 6816
0x77,0xfc,0xc3,0xfe,0x7c,0x00,0xdd,0xff, 0x85,0xfd,0xcd,0xfc,0xcf,0x00,0x8a,0xfb, // 6832
0x3c,0x01,0x38,0xff,0xde,0xff,0xf3,0x00, 0x86,0x00,0x29,0xfe,0x89,0xfa,0xdc,0xfe, // 6848
0xcb,0x06,0x83,0x05,0xf6,0xff,0x2e,0xfc, 0x5f,0xff,0x48,0xff,0x2f,0x08,0xcd,0xfc, // 6864
0x93,0xff,0xaa,0xef,0x8a,0xfe,0x18,0xff, 0x38,0xfc,0x6d,0xff,0x8a,0x00,0x5f,0xff, // 6880
0xfb,0xff,0xc7,0xfe,0x4e,0x01,0xa1,0x01, 0x54,0x08,0xc5,0xfe,0x2b,0x00,0xc9,0xfd, // 6896
0xb8,0x09,0xe9,0xfd,0x95,0xfc,0x1e,0x04, 0x74,0xfc,0x48,0xfd,0xee,0x01,0xde,0xfc, // 6912
0xa9,0xfc,0x0f,0x04,0xa9,0xfd,0xcd,0x03, 0xc2,0xfd,0xf8,0xfe,0xbf,0xfe,0x39,0xff, // 6928
0x6b,0x06,0x61,0x01,0x05,0x00,0xa2,0x05, 0x54,0xfc,0xba,0xff,0x19,0xfe,0x4b,0x01, // 6944
0xad,0x00,0x21,0xf2,0xc8,0xff,0x26,0x00, 0xff,0x01,0xf7,0xfe,0x40,0x05,0xcd,0x00, // 6960
0x44,0xfe,0xfa,0xf5,0xa8,0x00,0xbf,0xff, 0x56,0xfc,0x65,0x01,0x22,0xfc,0xd0,0xff, // 6976
0x97,0xfe,0xe7,0xff,0x2d,0x00,0xcb,0x03, 0xe1,0x01,0xbd,0xff,0x77,0x01,0x31,0x05, // 6992
0x33,0xfe,0x73,0xfc,0x83,0x01,0xea,0xfd, 0x86,0x00,0x7f,0xfe,0x1e,0x02,0x2c,0x03, // 7008
0x0e,0xfd,0xd3,0x03,0x01,0x01,0xf1,0x02, 0xaf,0xfe,0xa1,0xfb,0xac,0x01,0x52,0x02, // 7024
0x02,0xfe,0xde,0xff,0xe0,0x04,0x29,0xff, 0x42,0x02,0xd7,0x03,0x7b,0xfc,0x6d,0xfc, // 7040
0xc6,0xff,0xf7,0xff,0x3b,0x07,0xdd,0xff, 0xcb,0x00,0x20,0x00,0xb5,0xfe,0xc0,0xfe, // 7056
0x46,0xff,0x76,0x0b,0x16,0x01,0x73,0x00, 0x36,0x05,0xab,0xfc,0xd5,0xf4,0x72,0x02, // 7072
0x48,0x02,0x07,0x01,0xb0,0xff,0xad,0x06, 0x0a,0x01,0x74,0x00,0x54,0xfe,0xa2,0x00, // 7088
0xa6,0x09,0xe6,0xfe,0xf9,0xff,0xd2,0xff, 0x3c,0x04,0x91,0xff,0x71,0x00,0x28,0xfd, // 7104
0xd1,0xff,0x70,0xfd,0xe7,0xfe,0xf9,0xfe, 0xfe,0xfb,0x28,0x00,0x82,0x00,0xf2,0x01, // 7120
0xc4,0xf7,0x37,0x02,0x27,0x0a,0x73,0x01, 0xb5,0xf4,0x43,0x00,0xf2,0xfe,0xa1,0xfe, // 7136
0x8c,0xf9,0xcc,0x00,0x96,0xf4,0xb0,0xff, 0xa2,0xfd,0xba,0x02,0xa4,0x03,0x4e,0x00, // 7152
0x0a,0x01,0x02,0xfe,0x50,0x01,0xec,0xfd, 0x81,0xff,0x97,0xff,0x52,0x02,0x15,0x00, // 7168
0xb3,0x00,0xec,0xfe,0x15,0xf5,0x26,0x03, 0x48,0xf9,0xd7,0x05,0xbf,0x0b,0x51,0x00, // 7184
0x95,0xfe,0x8a,0x01,0x79,0xfd,0x9b,0xf9, 0x32,0x08,0x60,0xf8,0xb6,0xff,0x60,0xf8, // 7200
0x58,0x02,0xd9,0x00,0x23,0x02,0xf3,0xff, 0xea,0xfe,0xf4,0x00,0x54,0x00,0xd9,0xfa, // 7216
0x90,0x05,0xb7,0xff,0xe2,0xf6,0xc8,0x00, 0xa0,0xfa,0x9d,0x06,0x1d,0x03,0x55,0x00, // 7232
0xd7,0xfd,0x30,0x01,0x1b,0xfd,0xbd,0xfb, 0x71,0xfe,0x65,0x02,0x4e,0xff,0x69,0xfe, // 7248
0x16,0xfd,0x9a,0x01,0xb3,0x02,0x49,0xff, 0x1c,0x01,0xd6,0xfe,0x03,0xff,0x5d,0xfc, // 7264
0xb6,0x05,0x23,0x01,0x87,0xf1,0x72,0xf2, 0x81,0x00,0x1d,0xff,0xeb,0xfe,0xaf,0x00, // 7280
0x76,0x01,0xb2,0x01,0xef,0xfe,0xf5,0xfc, 0x50,0x06,0xac,0xfa,0x37,0x01,0xa1,0x00, // 7296
0x6e,0xff,0xa6,0xff,0xd7,0x01,0x86,0xfe, 0xae,0x01,0xdd,0xfe,0x0b,0xf5,0x70,0xff, // 7312
0xae,0xfa,0xcf,0xfb,0xed,0x02,0x07,0xff, 0x35,0xfd,0x2e,0x00,0x9b,0xfe,0xfc,0xfe, // 7328
0x17,0xff,0x6a,0xfd,0x09,0x00,0xe4,0xfc, 0x36,0x00,0x79,0x01,0x7d,0xff,0x94,0x03, // 7344
0x85,0xfe,0xfb,0x02,0x3c,0x00,0x3d,0xfb, 0x6a,0xfe,0x02,0xff,0x0e,0x04,0x35,0x01, // 7360
0x8d,0xfc,0x59,0x01,0xd4,0xfd,0x79,0x07, 0x72,0x04,0xe4,0xff,0x7c,0x00,0xd4,0xfe, // 7376
0xd6,0x02,0x73,0xfc,0x32,0x05,0xba,0xf6, 0xa5,0x00,0x88,0x00,0xe4,0xf6,0x21,0x01, // 7392
0x63,0xfe,0x8b,0xf8,0xcb,0xff,0xf6,0xff, 0xd6,0xff,0x8c,0x02,0xb2,0xff,0xe8,0xff, // 7408
0xd6,0xfe,0x37,0xff,0xc7,0xfe,0xfc,0x00, 0x7a,0xfd,0x2f,0x01,0x63,0xff,0x59,0xff, // 7424
0x43,0x00,0x8f,0xff,0x8f,0xfd,0xbc,0x05, 0x7e,0xfd,0x01,0xfe,0xf0,0xfd,0x5e,0xfb, // 7440
0xa7,0xfe,0x56,0xfd,0x45,0xfc,0x80,0x01, 0xef,0xfd,0x46,0xff,0x06,0x02,0x33,0x02, // 7456
0xc8,0x00,0x32,0x06,0x49,0x00,0xb1,0xff, 0xfa,0xff,0x2f,0x01,0x37,0xff,0x72,0x03, // 7472
0xf8,0xfe,0x73,0x01,0xb0,0xfd,0x25,0x01, 0x39,0xfe,0xeb,0xfd,0x22,0x00,0xcf,0x00, // 7488
0x2c,0x00,0x40,0x02,0xbc,0xfd,0xed,0xff, 0xc7,0xfd,0x17,0x00,0xf8,0x02,0xcf,0x00, // 7504
0x34,0xfe,0xa3,0x03,0x25,0xfb,0x79,0xfd, 0xe4,0x04,0x39,0x02,0x75,0xf9,0x1b,0x06, // 7520
0xce,0xfd,0x57,0xff,0x70,0x01,0x1c,0xfb, 0x41,0x04,0x40,0x05,0xcf,0x04,0x62,0x01, // 7536
0x4e,0x00,0xda,0x01,0x39,0x01,0xac,0xfb, 0x90,0xfc,0x3f,0x03,0x31,0x02,0x82,0xfe, // 7552
0x25,0x01,0x2e,0x00,0xa6,0x02,0x85,0xfe, 0xcf,0x00,0xa6,0x02,0x33,0x02,0xb9,0xfd, // 7568
0x1b,0xfc,0x17,0xfe,0x5c,0x02,0x33,0x00, 0x71,0xff,0xe3,0xff,0xbb,0xfa,0xc3,0xfc, // 7584
0x1f,0x02,0xc6,0x01,0xd5,0xfc,0x37,0xfd, 0xfa,0xfb,0xbe,0xfd,0x3b,0x00,0x8b,0x01, // 7600
0x61,0xff,0xc7,0xff,0x59,0xfd,0x02,0x00, 0x9e,0xfe,0x09,0x00,0xae,0xff,0x21,0xfe, // 7616
0x04,0xfe,0x8e,0xff,0x28,0x02,0xa6,0x00, 0xcd,0x08,0xcd,0xfa,0xce,0x00,0x7a,0xff, // 7632
0x31,0x01,0xe5,0x00,0x79,0xf4,0x5b,0x00, 0xde,0x00,0xc6,0xff,0x19,0x01,0xaa,0x00, // 7648
0x62,0xff,0x18,0xff,0x73,0xf4,0xe7,0xfa, 0xb1,0xfe,0xe1,0xfc,0x4e,0x00,0x34,0x00, // 7664
0x19,0x00,0x73,0x00,0x84,0x00,0x84,0xea, 0xc4,0x00,0x92,0xff,0x43,0xff,0x63,0xff, // 7680
0x81,0x00,0x3b,0x01,0xbd,0xfe,0x0c,0xff, 0x3a,0x00,0xc2,0x06,0xe9,0x01,0x32,0xff, // 7696
0x75,0xff,0xdb,0xff,0x6f,0x00,0xe3,0xff, 0xcb,0xfd,0xa4,0x01,0x65,0xff,0x6b,0xfe, // 7712
0x76,0xfe,0xb8,0x00,0x0c,0x02,0x21,0x00, 0x6c,0x00,0xcb,0x00,0x3e,0x06,0x71,0xff, // 7728
0x41,0x04,0x64,0x01,0xb7,0x02,0x79,0x01, 0xcf,0x02,0x77,0x01,0x4a,0xff,0x72,0x01, // 7744
0xa5,0xff,0xa2,0x01,0x6c,0x00,0x74,0xfe, 0xd7,0xfc,0xab,0x02,0x37,0xff,0x0a,0xfe, // 7760
0x3a,0x00,0xe2,0x00,0xcc,0x01,0x6a,0xfe, 0xfb,0xfe,0xf7,0xff,0x50,0xff,0x14,0xff, // 7776
0x44,0xff,0xcf,0xff,0xe5,0x01,0xed,0xff, 0xbf,0xfe,0xb0,0xfe,0x17,0xff,0xe7,0xff, // 7792
0xeb,0xfd,0xd4,0xfe,0x4b,0x00,0x52,0x02, 0x7a,0x04,0x40,0x00,0x68,0x00,0x9b,0x00, // 7808
0x7a,0xfb,0x9b,0xff,0xaf,0xfe,0xcc,0xff, 0x22,0x00,0xa3,0xe9,0xfe,0xfe,0xeb,0xff, // 7824
0xc9,0xfd,0x8d,0xf3,0x84,0x00,0x98,0x01, 0x00,0x03,0xeb,0xfe,0x5f,0x00,0x3d,0xff, // 7840
0x42,0xfe,0x2a,0x01,0xe7,0x03,0xaf,0x01, 0x21,0xfc,0x5e,0x01,0xf8,0x02,0x8b,0x00, // 7856
0x1b,0x00,0x2b,0xfe,0x1f,0x01,0x23,0xfe, 0x8e,0xfd,0x71,0xff,0x61,0xff,0xf8,0x01, // 7872
0xcf,0xfe,0x49,0x01,0x6a,0xff,0xb1,0xfd, 0x4d,0xfd,0xd7,0x04,0x02,0x00,0x73,0xff, // 7888
0x0e,0x00,0x8d,0x00,0x63,0x00,0x44,0x01, 0x36,0x02,0x8a,0xff,0x0e,0x02,0xc1,0xf9, // 7904
0xa7,0x06,0xc6,0xf2,0xaa,0xff,0xe6,0x02, 0x4c,0x03,0xca,0x02,0xe0,0xf9,0x4d,0x03, // 7920
0x15,0x01,0x69,0xfe,0x21,0x08,0xae,0xfb, 0xef,0xfd,0x32,0xfe,0xe2,0xfd,0xc7,0x01, // 7936
0x8c,0x02,0x66,0x01,0x55,0xfb,0x2a,0x03, 0xb8,0xff,0x0e,0xff,0xe4,0x05,0xf7,0x00, // 7952
0xf3,0xff,0xc3,0xff,0x12,0x00,0xe7,0x00, 0xdd,0x00,0xc9,0xfc,0xe6,0xfe,0x12,0xff, // 7968
0xc1,0x01,0x85,0xff,0x75,0xff,0x9d,0xff, 0x21,0x02,0xe9,0xfe,0x9b,0xff,0x91,0x00, // 7984
0x4e,0x00,0x14,0x01,0x18,0x02,0x57,0xfd, 0xc0,0x01,0xb3,0xff,0x3e,0x00,0x4c,0x05, // 8000
0x36,0x01,0x1d,0x04,0xcf,0x0a,0xd3,0xfe, 0x84,0xfe,0x2f,0x02,0xb6,0xff,0x94,0x02, // 8016
0x3a,0x00,0x3a,0x01,0xc2,0xff,0x8c,0x00, 0x8a,0x00,0xa0,0x01,0x2b,0xff,0x71,0xfb, // 8032
0x3d,0x01,0x88,0x01,0xca,0x01,0x7a,0x00, 0x76,0x01,0xa1,0x01,0x54,0x02,0x20,0xfc, // 8048
0x33,0xfe,0x6e,0xff,0x14,0x03,0xcf,0xfd, 0xff,0xff,0x03,0x02,0xaa,0xff,0xe6,0xff, // 8064
0xaa,0xfe,0xe2,0x00,0x5a,0x02,0xe9,0xfc, 0x73,0xf9,0x20,0xff,0x71,0xfe,0xdc,0x00, // 8080
0xda,0x08,0xb7,0x01,0x43,0xfe,0xaf,0x01, 0x43,0xfb,0xc3,0xfa,0x94,0xfe,0x5a,0xfe, // 8096
0x70,0x00,0xab,0xf8,0xd5,0xff,0x87,0x00, 0xa6,0x00,0x2a,0xfc,0x2c,0xff,0xaf,0x00, // 8112
0xec,0xff,0x34,0xff,0x47,0xfd,0x2f,0xff, 0xf8,0xfa,0x17,0x01,0xc1,0xfc,0x40,0xfe, // 8128
0x87,0x00,0x3e,0xfb,0x76,0x00,0xbc,0xff, 0xb5,0xfe,0xa8,0x01,0x45,0x02,0x26,0xff, // 8144
0x34,0xff,0x7a,0x00,0xdc,0x00,0xd7,0x12, 0x27,0xff,0x8e,0xfd,0x39,0xff,0xdd,0x03, // 8160
0xa1,0xfd,0x8b,0x01,0x41,0xf0,0x08,0x00, 0x8c,0x01,0xd7,0xfb,0x36,0x01,0x7d,0xfe, // 8176
0xf4,0x00,0x85,0xec,0x49,0xfc,0xf5,0x01, 0x7a,0x00,0xdd,0xfe,0x0a,0x05,0xd8,0xfa, // 8192
0x7b,0xfe,0x8d,0xfc,0x41,0xfe,0xd5,0x00, 0xe8,0xff,0x02,0xfe,0x4b,0x02,0x9b,0x02, // 8208
0x03,0xff,0x08,0xff,0x2d,0xff,0xc1,0xfd, 0x47,0x01,0x9a,0xfd,0x8a,0x00,0x15,0x01, // 8224
0xd1,0xff,0xd8,0x00,0x60,0xff,0x01,0xfd, 0x93,0xfd,0xc2,0xfe,0x11,0x02,0xc4,0x01, // 8240
0xf3,0x05,0xfe,0x00,0xa7,0xf8,0x08,0xfd, 0xf0,0x0d,0xd8,0x02,0x05,0x01,0x2f,0x00, // 8256
0x75,0x04,0xc2,0x00,0x83,0x11,0x45,0x00, 0x39,0x02,0xd2,0xf7,0x60,0xfc,0xe2,0x00, // 8272
0xb9,0xfe,0xcf,0x01,0xb5,0xfd,0x01,0x01, 0x4c,0xff,0x92,0x00,0xc0,0xff,0xac,0xfe, // 8288
0xb8,0x00,0x9d,0xfd,0x75,0x07,0xb2,0x01, 0xd8,0x00,0xff,0xfd,0xb2,0xed,0x07,0x00, // 8304
0x64,0x01,0xa1,0xff,0xce,0x00,0xab,0x04, 0x54,0xfa,0x67,0x09,0x2a,0xfe,0x25,0x05, // 8320
0xc2,0xfa,0x4a,0x00,0x1a,0x01,0xbe,0xfe, 0x1a,0x02,0xd4,0xff,0xf0,0xfe,0xaf,0x06, // 8336
0xe0,0xfb,0x81,0x00,0xca,0x08,0x71,0x00, 0xf2,0xfd,0x57,0xf9,0x63,0xfb,0x61,0x01, // 8352
0x64,0x00,0xb7,0x00,0xaf,0x00,0x24,0x08, 0x8b,0xff,0x13,0xfa,0xdb,0xff,0x36,0x00, // 8368
0x74,0x00,0xf9,0xff,0x38,0xfe,0xf8,0xff, 0x6f,0x01,0xd1,0x00,0x17,0x00,0xbd,0x00, // 8384
0xd7,0xf7,0x47,0x00,0x4b,0x07,0xa7,0x02, 0xf9,0xff,0xeb,0xff,0xea,0x02,0x0f,0x00, // 8400
0xed,0xfb,0x51,0xfe,0x45,0x02,0x7a,0xff, 0xfe,0xf6,0x41,0x00,0x59,0x01,0x84,0x01, // 8416
0xe9,0xfd,0x0a,0x01,0x07,0xfe,0xa3,0x01, 0xd9,0x01,0xf2,0x00,0xa4,0x02,0x31,0x00, // 8432
0x27,0xfe,0xb8,0x00,0x68,0xf9,0xa8,0x00, 0x39,0x00,0xac,0xff,0x9d,0xff,0xd2,0x01, // 8448
0x2c,0xfe,0xd4,0xff,0x09,0xfe,0x55,0xfd, 0xb4,0xff,0x49,0xfe,0xd9,0xff,0x09,0xff, // 8464
0x76,0xff,0xcb,0xff,0x16,0x00,0x10,0xfd, 0x6a,0xff,0xd6,0x00,0x73,0xff,0x98,0xff, // 8480
0x3c,0xff,0xca,0xff,0x01,0x02,0xa7,0x00, 0xa2,0x00,0x2b,0x00,0x30,0x02,0xfb,0xfa, // 8496
0x58,0xff,0x64,0xff,0xfc,0xfd,0x3e,0xff, 0x46,0xff,0xef,0x00,0xee,0xfe,0x22,0x01, // 8512
0x68,0xfd,0xde,0xfe,0x30,0x00,0x5e,0xff, 0x6f,0xff,0xe8,0x01,0x93,0x00,0x13,0x01, // 8528
0xf5,0xff,0x2a,0x00,0x6e,0x00,0xa5,0xfe, 0x11,0x01,0x5c,0xff,0xcf,0x00,0xfc,0xfe, // 8544
0xf3,0xff,0xed,0xfe,0xa8,0xfd,0xe3,0xfe, 0x5f,0xfd,0x19,0x02,0xab,0xff,0x1a,0x00, // 8560
0xa2,0x00,0x5b,0x00,0x4f,0xfe,0x24,0xff, 0x58,0xff,0x78,0xfa,0x5a,0x00,0xe6,0x00, // 8576
0x35,0x03,0x0e,0xff,0x6c,0xfe,0x00,0x01, 0x1c,0xfe,0xdd,0x01,0x52,0x00,0x1d,0x01, // 8592
0x6d,0x00,0x05,0x02,0x37,0xfc,0x31,0x00, 0xf3,0xfe,0x0c,0xff,0x8b,0xff,0x08,0x02, // 8608
0x98,0xff,0x9d,0xfd,0xb8,0xff,0xa2,0x00, 0x6b,0x00,0xfb,0xfa,0x2e,0xff,0x53,0x01, // 8624
0xe6,0x00,0x1b,0x00,0xea,0xfe,0xbf,0x00, 0xc2,0x00,0x9d,0x01,0xac,0x01,0x2a,0x01, // 8640
0xbe,0xff,0xe5,0xfd,0x27,0xfe,0x62,0x02, 0x67,0x02,0x0c,0xff,0xed,0x01,0xe7,0xfe, // 8656
0xeb,0xff,0x00,0x00,0x8b,0xff,0xa7,0x00, 0x7b,0x00,0xc3,0x00,0xca,0xff,0xb1,0xff, // 8672
0x6b,0x00,0x62,0xfe,0xaa,0xff,0x2d,0xfe, 0xfe,0xff,0x33,0xff,0x3c,0x04,0x8b,0xff, // 8688
0x54,0xff,0x53,0x00,0xad,0x00,0x2c,0x02, 0x0d,0x00,0x2f,0x01,0xdc,0xfe,0xb7,0x01, // 8704
0x27,0xff,0xbd,0xfc,0x04,0xfe,0x0c,0x02, 0x89,0xff,0x45,0x01,0x8e,0x01,0x4c,0x00, // 8720
0x6c,0x00,0xd3,0xff,0x1e,0xf9,0x36,0xfe, 0xf8,0x00,0x21,0xfe,0x88,0x00,0x93,0xff, // 8736
0x9e,0xff,0xb2,0xf6,0x6b,0xfc,0x95,0x00, 0x1f,0x00,0xe6,0xff,0x6c,0x07,0x93,0xfe, // 8752
0x6d,0xf5,0xf2,0xf0,0x5e,0x01,0x68,0xff, 0x43,0xfd,0x1e,0x02,0x44,0x01,0x75,0x01, // 8768
0xf5,0xfe,0xc0,0x01,0x3c,0xfe,0x73,0xff, 0xc3,0xff,0x91,0xfe,0x09,0x01,0xe5,0xfe, // 8784
0x6c,0xff,0x01,0x01,0x34,0xfd,0x22,0xfd, 0xf9,0xff,0xb3,0xfd,0xee,0xfd,0xf5,0xfc, // 8800
0xb5,0x05,0x4f,0x00,0xac,0xfc,0xb8,0xff, 0x32,0x05,0x14,0x05,0x76,0xff,0xdb,0xff, // 8816
0xc9,0x02,0x87,0x00,0xdb,0x09,0x36,0xff, 0x52,0x00,0x5d,0xf6,0xf5,0xfd,0x35,0x08, // 8832
0xf4,0x00,0x15,0x00,0xad,0x01,0x12,0xf8, 0xee,0xfe,0xf1,0xf9,0xbc,0x01,0x67,0x01, // 8848
0x0a,0x06,0x0e,0xfe,0x89,0x04,0x02,0x00, 0xa9,0xff,0xf7,0xff,0x2b,0xf8,0x1b,0x01, // 8864
0x02,0x00,0xef,0xf8,0x72,0x01,0xaf,0x07, 0x57,0xf9,0x06,0x05,0x82,0xfd,0x97,0x02, // 8880
0x07,0xf2,0x08,0xf8,0x80,0x00,0x1e,0x00, 0x43,0x09,0xad,0xff,0xa5,0xff,0x5f,0x07, // 8896
0x4f,0xfd,0xec,0x00,0x88,0x06,0x9b,0x00, 0xd3,0xff,0xff,0xfa,0x89,0xfa,0xb2,0x00, // 8912
0xa8,0xfe,0xfa,0xff,0xbf,0xff,0x04,0x03, 0x2c,0xff,0x67,0xf9,0xf8,0xff,0x49,0xfd, // 8928
0x6b,0xfe,0x28,0x04,0x86,0xfd,0x82,0x08, 0x1d,0x01,0xf7,0x02,0xed,0x04,0xfa,0x01, // 8944
0x81,0xfb,0x4b,0xff,0xc6,0x06,0x7d,0x02, 0x23,0xfe,0x5e,0x00,0x8c,0x04,0x4b,0x00, // 8960
0xeb,0xfe,0xea,0xfe,0x6b,0xff,0x54,0xff, 0x14,0xfb,0xa9,0x00,0x6b,0x00,0xf7,0xfe, // 8976
0x4a,0x00,0x38,0xff,0x71,0xff,0xbf,0x01, 0x3d,0x00,0xe2,0x02,0xd7,0xff,0xdb,0xff, // 8992
0x03,0xff,0x73,0x00,0xdf,0xfc,0x93,0xff, 0x2b,0x01,0xf2,0xff,0xee,0x02,0x0c,0xfe, // 9008
0x4e,0x01,0xc2,0x0a,0x30,0xff,0xd8,0x01, 0x13,0x01,0xe1,0x02,0xc4,0x00,0xa2,0xff, // 9024
0x9a,0x02,0x86,0xff,0x2f,0xfd,0x69,0x0a, 0x9c,0xff,0x88,0xff,0x65,0xf6,0x95,0xff, // 9040
0x32,0x04,0xe5,0xfd,0xca,0x02,0x89,0xfe, 0xf9,0xfc,0xc2,0xff,0x4b,0x00,0x8c,0xfe, // 9056
0x71,0xfd,0xc7,0x02,0x68,0xfe,0x8c,0x00, 0xf2,0x00,0x2f,0xfc,0x78,0x05,0x41,0xf7, // 9072
0xcc,0x00,0x65,0xff,0x7e,0xfb,0x0e,0x00, 0x67,0xfc,0xef,0xfe,0xf9,0xff,0x55,0xfe, // 9088
0xe5,0xfe,0x91,0x05,0xcb,0x03,0x4e,0x01, 0xbd,0xfe,0x1d,0x00,0x91,0xff,0x81,0x01, // 9104
0xc1,0xff,0x59,0xff,0x34,0x05,0x57,0xf9, 0xe0,0x00,0x9e,0xfe,0xde,0x00,0xad,0xff, // 9120
0xd4,0xff,0x2f,0xff,0x2c,0x01,0xf8,0xfd, 0x29,0x08,0x46,0x04,0x42,0xfb,0x6a,0xfe, // 9136
0x5e,0xff,0x13,0x01,0x0d,0x06,0xef,0xfe, 0x3c,0x00,0x11,0xfd,0x77,0x01,0xa7,0xfa, // 9152
0x3d,0x02,0xa0,0xfc,0x32,0x01,0x19,0xff, 0x25,0x02,0xaf,0xfe,0x9d,0x02,0x45,0xff, // 9168
0xe2,0x00,0x5b,0xfd,0x59,0x00,0x45,0xfe, 0x87,0xfe,0x72,0x06,0xb5,0xf9,0xff,0xfd, // 9184
0x47,0x01,0x30,0xff,0x64,0x06,0x47,0x00, 0xad,0xfe,0xc1,0xfc,0x48,0x05,0x6e,0xfa, // 9200
0xb0,0x00,0xb8,0xfd,0xef,0xff,0xd4,0x00, 0x86,0xfe,0x87,0x00,0x39,0xfc,0xd4,0xfe, // 9216
0xf3,0xff,0x5a,0xf7,0xd1,0xfe,0x87,0x02, 0xc4,0x08,0xa2,0xfe,0xad,0xfa,0xdd,0x00, // 9232
0xdf,0x01,0xcf,0x01,0x9f,0xfe,0x94,0x01, 0x88,0x04,0xc7,0x00,0x21,0xfe,0x95,0x00, // 9248
0x59,0x04,0xd2,0x00,0x32,0xfe,0xea,0xff, 0x4e,0x02,0x47,0x01,0x7c,0x07,0xf7,0xfe, // 9264
0x61,0xfe,0x26,0x03,0x4d,0x03,0x2c,0x00, 0x55,0x00,0xc4,0x01,0x73,0x00,0x42,0xfc, // 9280
0xc8,0x00,0x85,0xff,0x9b,0xff,0x68,0xff, 0x77,0xfe,0x84,0xff,0x0f,0x00,0xb0,0xfc, // 9296
0xe9,0xfe,0x78,0x01,0x46,0x00,0xd4,0x02, 0xa3,0x01,0xbc,0x00,0x55,0x01,0xe1,0xfc, // 9312
0xdc,0xfd,0xac,0xff,0xdf,0xff,0x6c,0x01, 0xaf,0xfb,0x8f,0x00,0xee,0xfe,0x4e,0x04, // 9328
0x69,0x03,0x88,0xfe,0x53,0x01,0x22,0xfd, 0x9f,0x01,0x0f,0xfc,0x06,0x02,0x51,0xfb, // 9344
0x00,0xff,0xfc,0x01,0x34,0xfb,0xf9,0xff, 0x94,0xfe,0x95,0xfb,0x0c,0x01,0xcb,0x02, // 9360
0x53,0x00,0x3c,0x01,0xb3,0x02,0xed,0xfe, 0x12,0x00,0x1f,0xff,0x85,0xf8,0xdb,0xfd, // 9376
0x83,0xff,0xa8,0xff,0x14,0xfd,0xce,0xfc, 0x05,0x00,0x47,0x05,0xe3,0xfd,0x17,0x07, // 9392
0x8f,0xff,0x57,0xff,0xa3,0xfd,0xa8,0xfc, 0x80,0xfd,0x62,0xfe,0x48,0xfe,0xfd,0x03, // 9408
0xc8,0x01,0xb8,0xf9,0x24,0x01,0x92,0x00, 0x03,0x00,0x89,0x03,0x6b,0xff,0x27,0x03, // 9424
0xba,0xfc,0x48,0x00,0x9f,0xfe,0x4f,0x00, 0x08,0xfe,0xff,0x00,0x63,0xfc,0xfc,0xfb, // 9440
0xac,0x01,0xe4,0xfd,0x5a,0x02,0xc1,0xfd, 0xb3,0xfd,0x3d,0x02,0x4e,0xfd,0x87,0xfd, // 9456
0x1c,0x03,0xc7,0xff,0x08,0x01,0xef,0x02, 0xaf,0x00,0x55,0x02,0xbb,0xfb,0x6b,0x00, // 9472
0xda,0x00,0x1a,0xff,0xbe,0xfa,0xa7,0x03, 0x40,0xfd,0xc4,0x04,0xa1,0x01,0x02,0xfd, // 9488
0xf2,0x01,0xae,0x01,0x4e,0x01,0xf2,0xff, 0x0f,0x00,0x1e,0x00,0x98,0x00,0xa1,0xfb, // 9504
0x8c,0xff,0xac,0x00,0x40,0x00,0x1f,0xff, 0x01,0xff,0x6e,0xfd,0xb8,0x01,0x11,0xfe, // 9520
0x89,0x02,0x2c,0x00,0x8a,0x04,0xdc,0xfc, 0x65,0xfc,0x55,0xfe,0x4f,0x00,0x91,0x00, // 9536
0x27,0xff,0x43,0xff,0x42,0xfc,0x37,0xfd, 0x20,0xff,0xba,0x01,0x68,0xfc,0x19,0xfd, // 9552
0xc5,0xfe,0x1c,0xfe,0x8c,0x00,0x86,0x02, 0x45,0xff,0xdf,0x00,0x0c,0xff,0x4d,0x02, // 9568
0xd3,0x01,0x3c,0x00,0x74,0x00,0xc1,0x01, 0x11,0x01,0xc0,0x00,0x6d,0x01,0x7b,0xf0, // 9584
0xa2,0x04,0x9a,0xfd,0x78,0xfb,0x03,0x03, 0x29,0x01,0xa6,0x00,0x97,0x00,0xf8,0xff, // 9600
0x98,0x00,0xb2,0xff,0x47,0x01,0xdd,0xf6, 0x9d,0xfd,0x51,0x01,0x46,0x00,0xc5,0x01, // 9616
0x89,0xff,0xf3,0x04,0x53,0xf5,0xc9,0x05, 0xf6,0xff,0x61,0x00,0xea,0x07,0x4b,0x05, // 9632
0xb1,0x01,0x6e,0x03,0x22,0x01,0xb8,0x01, 0x92,0xfc,0xf7,0xfd,0xcd,0xff,0xcd,0x00, // 9648
0xcc,0x00,0xc9,0xfb,0x8c,0x03,0xe0,0xff, 0xb1,0x00,0x83,0xfd,0x4d,0xff,0x14,0x00, // 9664
0x3f,0x00,0xcd,0xff,0xad,0x05,0x6e,0xfb, 0x60,0x00,0x93,0xff,0x96,0xfe,0x4d,0x14, // 9680
0x67,0x06,0xbf,0x01,0xcf,0x00,0xa9,0xfe, 0x4c,0x00,0x8f,0x02,0x62,0xfd,0x52,0xff, // 9696
0x9c,0x00,0x98,0xff,0xdc,0xff,0x82,0xfe, 0x9e,0x02,0xd3,0xff,0xce,0xff,0x4b,0xfa, // 9712
0x87,0x06,0x15,0xff,0x98,0x04,0x0a,0xff, 0x16,0x03,0xb4,0x02,0xfe,0xfe,0x28,0x01, // 9728
0xc1,0xff,0xfa,0xfc,0x58,0x04,0xb0,0xff, 0x62,0x00,0x82,0x00,0x91,0xfd,0x99,0xfd, // 9744
0xf2,0x01,0x91,0x00,0x7c,0x05,0xdb,0xfb, 0xbb,0xff,0xb0,0xff,0x51,0xfe,0xd4,0xfc, // 9760
0x2f,0x02,0xfc,0xfe,0xd9,0xfc,0x05,0x0a, 0x96,0x00,0x97,0xef,0x7b,0x01,0x34,0xfc, // 9776
0x5f,0x00,0x9d,0x00,0x2c,0xfc,0x1b,0x02, 0x5a,0x00,0x1d,0x01,0x14,0xfd,0x63,0x00, // 9792
0x07,0x01,0xe7,0x00,0xa3,0xf9,0x9b,0xff, 0x51,0xfd,0xa6,0x00,0xdf,0xf9,0x81,0xff, // 9808
0xd4,0x02,0xe3,0xff,0xcd,0xff,0x51,0xfd, 0x4a,0x00,0x36,0x01,0x77,0x00,0x09,0x01, // 9824
0xcb,0xff,0x91,0xff,0xd6,0x01,0x51,0x03, 0xfd,0x00,0xdd,0xff,0xc2,0xfe,0x7a,0x02, // 9840
0xaa,0xff,0x29,0x02,0x17,0x03,0x9b,0x08, 0x10,0xfc,0x85,0xff,0xc9,0x01,0x5f,0xfe, // 9856
0x34,0xfe,0x67,0x01,0xec,0xfc,0xce,0xfc, 0xdd,0x02,0x8d,0xff,0x00,0xfb,0x88,0x02, // 9872
0x2b,0xff,0x24,0x00,0xf7,0xfd,0xad,0xff, 0x3a,0xfd,0x74,0xf7,0xb3,0x00,0x0b,0xff, // 9888
0x0d,0x01,0x6e,0x00,0x51,0xff,0x57,0xff, 0x8c,0x01,0x9d,0x01,0xd2,0xfc,0xbe,0x00, // 9904
0xc9,0xfa,0x00,0xff,0x16,0x05,0xda,0xfd, 0x0a,0xff,0xc7,0x02,0x1c,0x03,0xe4,0x00, // 9920
0x94,0xfb,0x00,0x00,0xb8,0x02,0x36,0x0a, 0x1f,0xff,0x05,0x00,0xc9,0xfd,0x49,0xff, // 9936
0xb9,0xff,0xb0,0xf8,0xca,0xfd,0x28,0xfd, 0x16,0x02,0x62,0xff,0xfe,0x02,0xfb,0xfd, // 9952
0x82,0x00,0xe4,0x03,0x8b,0x02,0x2f,0x02, 0x35,0x04,0x95,0xfd,0x11,0x01,0x4e,0x01, // 9968
0x9c,0x02,0x5d,0xfd,0xdc,0xfb,0xa6,0xff, 0xb0,0xff,0x15,0xfe,0x38,0x01,0x54,0x02, // 9984
0xe8,0xfe,0x70,0xff,0x07,0xfd,0x6f,0xfc, 0xd0,0x02,0xcd,0xfc,0x0b,0xfe,0x61,0x00, // 10000
0xbd,0x02,0xf9,0x00,0x7a,0x02,0x49,0x00, 0x47,0xff,0x7b,0x01,0xd9,0xff,0x78,0x01, // 10016
0x94,0x02,0x0e,0xfd,0xbf,0xfb,0x00,0x03, 0xd6,0xfd,0xab,0x01,0x48,0x02,0xa5,0xf9, // 10032
0xf7,0xfe,0xa6,0x09,0x88,0xff,0xe4,0xfb, 0x95,0xff,0x49,0xff,0x59,0xfc,0x59,0x02, // 10048
0xaa,0xfd,0x5a,0xff,0x90,0x03,0x29,0xfe, 0xd3,0x02,0x21,0xfe,0xf7,0xf6,0x4a,0xff, // 10064
0x3b,0x05,0x23,0xff,0x31,0xfc,0xd0,0xfe, 0x90,0xfe,0xd8,0xfe,0xad,0xfb,0xe2,0xfb, // 10080
0x1c,0xff,0x4f,0xfd,0xee,0x00,0xf2,0xff, 0xc6,0x03,0x9c,0xff,0x96,0x00,0x84,0x03, // 10096
0xb1,0xff,0xbc,0xfd,0xce,0x03,0x2d,0x01, 0xf8,0xff,0x4a,0x00,0x4f,0xff,0x43,0x00, // 10112
0x09,0x00,0x71,0x00,0x2e,0x02,0x60,0xff, 0x3a,0xfe,0x9a,0x00,0x06,0x01,0x50,0xfe, // 10128
0x5e,0xfd,0xab,0xff,0xaf,0x00,0xb6,0xff, 0xea,0xff,0x76,0xff,0xee,0xff,0xc3,0x01, // 10144
0x3d,0x01,0x01,0xff,0x04,0x00,0x50,0x00, 0x17,0x00,0x0b,0x01,0xcc,0xfa,0x24,0x00, // 10160
0x39,0x02,0xfc,0xfe,0x2b,0x01,0x9a,0x02, 0xc8,0x00,0xae,0xff,0x54,0x00,0xc7,0xf9, // 10176
0x15,0x01,0x8c,0xff,0x46,0x00,0xec,0x00, 0x24,0x00,0xa7,0xff,0x3a,0x01,0xc4,0xfc, // 10192
0x7d,0xff,0xa1,0xfe,0xb1,0xff,0x53,0xff, 0x9c,0xff,0xc6,0x01,0xfd,0xff,0xb5,0x00, // 10208
0x7b,0x00,0xb9,0x02,0x12,0x01,0x37,0xfd, 0x9e,0x00,0x66,0x01,0xc1,0xff,0xb1,0xfe, // 10224
0x3c,0x00,0xbb,0xfe,0x2b,0xff,0x97,0xfe, 0xac,0xfb,0xc6,0x00,0x86,0xfe,0x27,0xff, // 10240
0x66,0xfe,0xd2,0xff,0x27,0xff,0x0a,0x00, 0x6e,0x03,0x44,0xfb,0x74,0x00,0xbc,0x00, // 10256
0x1f,0x05,0x9a,0xff,0x2b,0x01,0x61,0x02, 0x66,0xfd,0xca,0x00,0xed,0xff,0x45,0xff, // 10272
0x9d,0xff,0x33,0x01,0x71,0xff,0x16,0x00, 0xbe,0x00,0xf8,0x00,0xbe,0x02,0x15,0xff, // 10288
0xc3,0xff,0x59,0xff,0x3e,0xff,0x73,0x00, 0xf4,0xff,0xd0,0xff,0x69,0xff,0x87,0x01, // 10304
0xeb,0xff,0x25,0x01,0xfe,0xfe,0xbe,0xff, 0xa3,0x00,0x4d,0x00,0x71,0x01,0x5e,0x01, // 10320
0x9c,0xff,0x89,0xfe,0xba,0x01,0xdf,0xfe, 0x75,0x00,0xc7,0x00,0xc6,0xfe,0x7e,0x00, // 10336
0x18,0x00,0x16,0xfb,0x17,0x00,0x87,0x01, 0x51,0x00,0xc6,0x00,0x1d,0x00,0x84,0xfe, // 10352
0xf0,0x00,0x93,0xfc,0xb5,0x00,0xa4,0xfc, 0xe1,0x00,0x4e,0xff,0x75,0x06,0x4e,0xff, // 10368
0x66,0xfe,0xf5,0xff,0xea,0x00,0x70,0x03, 0x65,0xfe,0x08,0xfe,0x9b,0x00,0x31,0x00, // 10384
0xe9,0xfe,0xa6,0xff,0x29,0xff,0x1e,0x01, 0x20,0x00,0x40,0x01,0xb7,0xff,0x9c,0xfe, // 10400
0x0c,0x00,0x19,0xfc,0x5b,0x01,0xe4,0xff, 0x3c,0xff,0xd9,0x00,0x5e,0xfc,0x78,0x00, // 10416
0x1f,0xff,0x73,0x02,0xd5,0x01,0x42,0x05, 0x25,0xfc,0x49,0x0c,0x35,0x04,0xba,0x01, // 10432
0xb1,0xff,0x48,0x01,0xa7,0xfe,0xc7,0xfd, 0x73,0x01,0x0e,0x02,0x78,0xff,0xe5,0x04, // 10448
0x96,0xfe,0x40,0xfe,0xf7,0x03,0x0f,0x00, 0x3a,0x01,0xc9,0x00,0x5b,0x07,0x1b,0xff, // 10464
0x79,0xff,0x9b,0x00,0x21,0xfe,0x88,0xff, 0x1d,0x01,0x6c,0xfd,0x61,0xff,0xad,0x01, // 10480
0x7a,0x04,0x33,0xfe,0xc7,0x00,0x29,0xfe, 0xd5,0xfc,0x6c,0xff,0x52,0x00,0x53,0x00, // 10496
0xdc,0x00,0x79,0x03,0xf9,0xfd,0x9c,0xff, 0xd3,0xfa,0x79,0x03,0x53,0x01,0x80,0xfe, // 10512
0x86,0xfc,0xca,0xff,0xae,0xfd,0xa5,0xfc, 0xb9,0xf8,0x83,0xff,0x02,0xf9,0x18,0x00, // 10528
0x8f,0xfd,0xd3,0xfe,0xef,0xff,0xa4,0x01, 0x65,0x04,0x15,0x01,0x6d,0x01,0x2c,0x01, // 10544
0x8e,0xff,0x0c,0x03,0x86,0x00,0xad,0x01, 0xf7,0xfd,0xcb,0x00,0xf3,0x00,0x53,0xfe, // 10560
0x5e,0x01,0xa0,0xff,0xcc,0xff,0x4c,0xfe, 0x58,0xfe,0x8c,0x01,0x67,0xf5,0xcb,0xfc, // 10576
0x22,0x01,0x53,0xff,0x7a,0x00,0xd2,0x00, 0xfb,0x00,0x22,0x02,0x18,0x01,0x05,0x04, // 10592
0x57,0x05,0x9c,0x00,0xd1,0xfe,0x8e,0xfe, 0x83,0xfe,0x4b,0x02,0x76,0x06,0x76,0xfd, // 10608
0xd7,0x01,0xa5,0x03,0x6b,0xfd,0xdf,0x01, 0x25,0xfa,0x57,0x00,0x32,0x04,0x21,0xfd, // 10624
0x5b,0x01,0x7d,0x01,0x79,0x02,0x93,0x02, 0x3e,0x01,0xbe,0xfe,0x19,0x03,0xed,0xff, // 10640
0xd6,0x01,0xa3,0xff,0x03,0x01,0xaa,0x00, 0xad,0xff,0xf8,0xff,0x4d,0xff,0x7b,0x00, // 10656
0x74,0x01,0x4e,0x00,0xcf,0x00,0xc5,0xfd, 0xed,0xfd,0x1e,0x03,0xf6,0x01,0x17,0xfd, // 10672
0x2c,0xff,0xa9,0xff,0xbe,0x01,0x50,0x00, 0xfe,0x01,0x8d,0xfe,0xa4,0xfe,0xd6,0x01, // 10688
0xde,0xfe,0x67,0x00,0x6e,0xff,0x7e,0xff, 0xec,0xff,0x29,0x00,0x3f,0x01,0x58,0xfe, // 10704
0x82,0x03,0x42,0x01,0x5e,0xfe,0x0e,0x01, 0xf1,0x01,0xa7,0x01,0x40,0xfa,0x63,0xfe, // 10720
0x77,0x01,0xbe,0xfc,0x69,0x01,0xd6,0x00, 0x2b,0x00,0x5e,0xfd,0x88,0x03,0x22,0xfc, // 10736
0x0b,0xff,0x4c,0x01,0x97,0xfc,0x2f,0x02, 0x8f,0xff,0xa8,0xfe,0x2d,0x04,0x8d,0x00, // 10752
0x1d,0x00,0xb9,0xfe,0x0c,0x01,0x79,0x03, 0xbf,0xff,0x94,0xfe,0x13,0xfe,0xda,0xff, // 10768
0xa7,0x00,0xa9,0x01,0x79,0x00,0x85,0xff, 0x30,0x02,0xe2,0xfc,0x2c,0x00,0x12,0x00, // 10784
0xe0,0xf8,0xcf,0x01,0x5c,0x00,0xc8,0xfe, 0xd2,0xfa,0x60,0x02,0xef,0xfb,0x4d,0x02, // 10800
0xde,0x03,0xdf,0x00,0x98,0xfd,0x40,0x00, 0x6b,0x01,0xcb,0xff,0xbd,0xfd,0x15,0xff, // 10816
0x37,0x03,0x8b,0x00,0x7f,0xff,0x2e,0x00, 0xb0,0x00,0xc8,0x00,0xbc,0x00,0x93,0xfd, // 10832
0x32,0x00,0x17,0x01,0x2d,0xff,0x1c,0xfe, 0x4c,0x02,0xeb,0x01,0x7e,0x04,0xa3,0xfd, // 10848
0xb2,0xfd,0x54,0xff,0x0d,0xff,0x76,0xff, 0x50,0xff,0xc1,0xfd,0xd8,0xff,0x94,0x00, // 10864
0xe7,0x02,0x31,0x02,0x08,0x02,0x13,0xfd, 0x7f,0x03,0x79,0x00,0xc1,0x00,0xa8,0x01, // 10880
0xd3,0xfe,0xf3,0x00,0x66,0x00,0xfb,0x03, 0xf3,0x04,0xc7,0xfe,0x79,0xff,0xb2,0xfd, // 10896
0x2b,0xfa,0xb6,0xfa,0x03,0xfe,0xc0,0x00, 0x11,0xff,0xa5,0x01,0x89,0xfd,0x3a,0x00, // 10912
0x15,0x01,0x41,0x00,0x42,0xfe,0x7b,0xff, 0xb0,0xfe,0x02,0x00,0xe2,0x05,0x96,0x01, // 10928
0x0c,0xff,0x9f,0x00,0x53,0xff,0xe7,0x00, 0xc6,0xfd,0x4e,0xfe,0x68,0x01,0x3a,0xff, // 10944
0xf1,0xfa,0x75,0xfa,0x77,0x01,0xc2,0x01, 0x8b,0x02,0x67,0x02,0xd8,0xfe,0x96,0xfe, // 10960
0x2f,0x02,0x35,0xfd,0x20,0xfd,0xc0,0xff, 0x85,0xfe,0xfe,0x03,0x6b,0xff,0x03,0xff, // 10976
0x7e,0xfe,0x26,0xfb,0xb4,0xfe,0x65,0x05, 0x24,0xff,0xbf,0x02,0x66,0xff,0x9f,0xff, // 10992
0x14,0xfb,0x62,0xfa,0x36,0x02,0x09,0x01, 0x18,0xff,0x34,0xfe,0x98,0xfa,0xec,0x04, // 11008
0x75,0xff,0x0c,0x00,0xe0,0x04,0xe6,0xfd, 0x70,0x00,0x9c,0xfe,0xc4,0x00,0x47,0xff, // 11024
0xef,0xfe,0x2b,0xff,0x12,0xfd,0x33,0xfd, 0xe6,0xfe,0x41,0xfe,0x5f,0xfe,0x28,0xff, // 11040
0x24,0x00,0xb5,0xff,0xb9,0xff,0x0e,0x00, 0xfc,0x01,0x76,0x02,0x72,0xfd,0x7b,0xfe, // 11056
0xb0,0xfe,0xc5,0xff,0x91,0x02,0x8a,0xfe, 0x6f,0xff,0x25,0xfe,0x32,0xfe,0xc8,0x04, // 11072
0xb0,0xfc,0x35,0x00,0xef,0xfd,0x04,0xfa, 0xf0,0xfe,0x7f,0xfa,0x2a,0xfd,0xac,0x04, // 11088
0xf1,0x02,0x94,0xff,0x52,0x01,0xf8,0xfe, 0x0e,0x05,0x36,0x00,0xea,0xfd,0x45,0x01, // 11104
0x17,0xfe,0xbe,0xfc,0xfe,0xff,0x98,0x01, 0xf6,0xff,0x91,0x01,0x48,0xfd,0x70,0xff, // 11120
0xdc,0xf7,0xbf,0xf8,0x31,0x01,0x2c,0x02, 0xeb,0x07,0xea,0x04,0x30,0xfe,0x9f,0x01, // 11136
0x3a,0x01,0x5f,0x00,0xc7,0x00,0x9f,0x00, 0x0a,0x00,0x81,0xfe,0x04,0x01,0x57,0xfe, // 11152
0x77,0x03,0x18,0x01,0x76,0x00,0x65,0x01, 0x02,0xfa,0x7b,0xfe,0x2a,0x03,0x9d,0xfd, // 11168
0xdd,0x02,0xf3,0x06,0x9f,0x00,0x7d,0x07, 0xf6,0xfe,0x44,0x01,0x6f,0xff,0x15,0x01, // 11184
0x12,0x01,0x67,0x05,0x5f,0xff,0xc7,0x01, 0xfc,0xfc,0x8f,0xfd,0xc3,0xff,0x9d,0xfd, // 11200
0xfd,0x02,0x91,0x01,0x32,0x03,0x11,0x00, 0x14,0xff,0x14,0xff,0x4e,0xff,0x3c,0x01, // 11216
0xf8,0x01,0x1a,0xff,0x41,0x00,0x38,0x00, 0xb9,0xfe,0x8a,0x02,0x00,0x02,0x8b,0xf8, // 11232
0xdd,0x00,0xd8,0xff,0xb0,0x00,0xfc,0xfd, 0xf3,0xff,0x49,0x00,0xbf,0xff,0xc2,0x03, // 11248
0xdd,0xfe,0x2e,0x02,0xd4,0xff,0xcd,0xff, 0xe2,0xfe,0x76,0x00,0x25,0x02,0xb0,0xfe, // 11264
0x6f,0xfe,0xf5,0x00,0xf5,0x00,0x83,0xfe, 0xb0,0x03,0x9b,0x06,0xb3,0xfb,0x2a,0xff, // 11280
0xa3,0x03,0xff,0xfc,0x02,0x03,0xb9,0x00, 0x1d,0xff,0x42,0xfc,0xdc,0x00,0x18,0xfe, // 11296
0xb3,0xff,0x37,0x01,0xb7,0xfd,0x58,0x01, 0x56,0xff,0x62,0xfe,0xb8,0x04,0x58,0xfa, // 11312
0x7e,0xff,0xa2,0x00,0xe4,0x03,0xa8,0x03, 0xd2,0x00,0x4b,0x00,0x18,0x01,0xc4,0x02, // 11328
0x07,0xff,0x30,0x03,0xa7,0x04,0x68,0xfe, 0xb7,0x02,0x87,0xfc,0xff,0xff,0x0f,0xff, // 11344
0xba,0xfe,0x37,0x02,0x2b,0x03,0x95,0xf5, 0xd4,0xfe,0x05,0x05,0xad,0xfd,0xb4,0x03, // 11360
0xad,0x04,0xac,0x03,0x7a,0xfe,0xfe,0xff, 0x4b,0xff,0xb6,0xfd,0x7d,0x02,0xa8,0x00, // 11376
0x0e,0x01,0xc8,0xff,0x37,0xff,0x2d,0x02, 0xa2,0xfd,0x9a,0x06,0xbb,0xff,0xc9,0xfb, // 11392
0x6a,0xff,0x64,0x01,0x03,0x03,0xc8,0xfd, 0x7e,0x04,0x4e,0x05,0xdb,0x01,0xa3,0xfe, // 11408
0xa8,0xfd,0x10,0x00,0x23,0x00,0x5e,0xfc, 0xbe,0x00,0xcd,0xf8,0xa0,0x00,0xc6,0xff, // 11424
0x8c,0x00,0xb1,0xfe,0x9f,0xff,0x49,0xfe, 0x13,0x02,0xc6,0x01,0x89,0x03,0x35,0xff, // 11440
0x55,0xff,0xd2,0xfe,0x4e,0xff,0x83,0x03, 0x0d,0x00,0xbe,0xfd,0xda,0xff,0x07,0xf9, // 11456
0xc7,0xfe,0xbb,0xfd,0x33,0xfd,0xa3,0x01, 0x0e,0x00,0xa3,0xfd,0x34,0x01,0xcd,0xff, // 11472
0x1c,0x01,0xe2,0xfe,0xa5,0xfd,0xd7,0xfc, 0x01,0xfe,0x57,0xfd,0x9a,0x01,0x84,0xff, // 11488
0x4f,0xff,0x20,0x01,0x5f,0xff,0x18,0x02, 0x0b,0xff,0x2a,0x00,0x02,0x05,0x13,0x01, // 11504
0xb0,0xfe,0xde,0xf4,0xd5,0x00,0xdb,0x00, 0xda,0xff,0xb4,0x00,0x53,0xff,0xae,0xfd, // 11520
0xd5,0x02,0x3e,0xfd,0x1e,0xfc,0xac,0x00, 0xd6,0xff,0x00,0x00,0x7f,0xfe,0x33,0x02, // 11536
0x98,0xff,0x81,0xf9,0xda,0xfd,0xa7,0x01, 0xcc,0xfb,0x5e,0x07,0xdb,0x05,0x7e,0xfe, // 11552
0x61,0xfe,0x2b,0xff,0x49,0x02,0xcf,0xf5, 0x11,0x00,0x08,0xfe,0xa7,0xff,0x4d,0x01, // 11568
0x53,0xf0,0xac,0xff,0xdb,0x04,0xf8,0x03, 0x40,0xf9,0x7d,0x02,0x40,0x01,0xeb,0x00, // 11584
0x7a,0xff,0xab,0xfe,0x18,0xff,0x32,0x05, 0xf7,0x03,0xe5,0xff,0xe8,0x03,0x7c,0x00, // 11600
0x84,0x03,0xa4,0xfa,0xd2,0xf7,0xec,0xfe, 0x57,0x05,0x98,0xfe,0x41,0x00,0xe2,0xfc, // 11616
0x55,0x01,0x75,0xfe,0xaf,0x04,0xe9,0xfe, 0xd0,0x00,0xea,0xfb,0x3d,0x00,0xd5,0xfe, // 11632
0x5d,0xfa,0x79,0x00,0xed,0xfa,0xf7,0x00, 0x80,0x00,0x68,0xfe,0xeb,0xf8,0x05,0x00, // 11648
0x6e,0x00,0x57,0x01,0x8d,0x04,0xad,0xfa, 0xa5,0x08,0xec,0xfc,0xb0,0xfb,0xa7,0x00, // 11664
0xa1,0xff,0x71,0xfe,0x04,0x05,0xc8,0x01, 0x8d,0xfd,0xe9,0x02,0xbf,0x02,0x47,0x06, // 11680
0x2c,0xfd,0x6e,0xfe,0x9d,0xfd,0xcc,0x01, 0x56,0x02,0xd1,0x01,0x0c,0xfe,0x88,0x01, // 11696
0x67,0xfc,0x35,0xff,0x1d,0x03,0xe3,0xfe, 0x2e,0x04,0xd1,0xf9,0xa0,0xff,0x62,0x02, // 11712
0x32,0x05,0xbb,0xfe,0x0d,0x02,0xcf,0x01, 0x86,0xfe,0xa1,0xf9,0xfa,0x00,0x63,0x00, // 11728
0x5f,0x05,0xfa,0xff,0xf6,0xfd,0x9d,0x00, 0xf1,0xfb,0x01,0x05,0x80,0xfe,0x40,0x03, // 11744
0x55,0xff,0x96,0x02,0xd1,0x04,0x4b,0x0c, 0xfd,0xfe,0x85,0xfd,0xb0,0x00,0xec,0xff, // 11760
0x1b,0x00,0xdd,0xff,0x60,0x02,0xcd,0x06, 0x02,0xfe,0xa9,0x06,0xd8,0xfa,0x37,0x00, // 11776
0xdb,0x00,0x87,0xfe,0x66,0x00,0x0e,0x02, 0x3e,0xfc,0xa0,0xfe,0x37,0x0a,0x3f,0x00, // 11792
0xfd,0x04,0x34,0x03,0x39,0xfe,0x3f,0x00, 0x0d,0x02,0xf4,0xfc,0x99,0x05,0x55,0x00, // 11808
0x89,0xfb,0x12,0x00,0xdd,0xfe,0x9a,0x00, 0xc6,0xf3,0x7a,0x04,0x1e,0x02,0xa8,0xff, // 11824
0xc2,0xff,0x84,0x01,0x3f,0x00,0x64,0x00, 0x35,0x00,0x4a,0x00,0x49,0x05,0xba,0xfe, // 11840
0xca,0xfc,0xd9,0xfe,0xa9,0xff,0xd9,0xfe, 0xf5,0x02,0x85,0x01,0xd6,0x01,0xc4,0x01, // 11856
0x83,0x00,0x1a,0x02,0x1f,0xff,0xdb,0xff, 0xa6,0xff,0x81,0x01,0x33,0x00,0x18,0x04, // 11872
0xc6,0x00,0x10,0x00,0x8f,0xfe,0xf9,0xff, 0xeb,0xfe,0x80,0x00,0xc8,0x07,0x32,0x00, // 11888
0x5f,0xf9,0x3c,0xfc,0x35,0xfc,0x85,0xf9, 0x8e,0x00,0x41,0xff,0xc7,0xf6,0xcb,0xf8, // 11904
0x51,0xfe,0xaa,0x08,0x1e,0xff,0x35,0x00, 0x2f,0xff,0xbb,0x00,0xf7,0xfe,0xb3,0x00, // 11920
0x93,0xff,0xcd,0x00,0xd2,0xfc,0xcf,0x02, 0x3c,0xfa,0xb8,0xfd,0xb3,0xfd,0x15,0xff, // 11936
0x91,0xfd,0x90,0x00,0x1f,0x02,0xe1,0x04, 0xd8,0xfc,0xac,0x01,0x86,0x00,0xd4,0x00, // 11952
0x2d,0x03,0x67,0xfe,0xed,0x01,0x31,0xfe, 0x05,0x00,0x65,0x00,0x36,0xfe,0xfe,0x01, // 11968
0xce,0xfe,0xc7,0x02,0xe5,0x00,0x97,0xfb, 0x50,0x07,0xee,0x00,0x1f,0x00,0x36,0x06, // 11984
0xe5,0x01,0x4f,0x07,0x56,0x01,0xc9,0x00, 0xc6,0x01,0x3f,0x03,0xb7,0xfc,0x3b,0xfe, // 12000
0x6d,0xff,0xcc,0x04,0x81,0xff,0x89,0x00, 0xb5,0x02,0x86,0xff,0x97,0x03,0x0f,0x00, // 12016
0x5e,0xfc,0x8f,0x03,0xdc,0xfe,0x92,0xfd, 0x54,0xff,0xd2,0x01,0xd9,0xff,0xb9,0xfe, // 12032
0xd0,0x00,0x94,0xfc,0x8e,0xfe,0x63,0xfe, 0x84,0xff,0xd8,0xff,0xed,0xfe,0xca,0x00, // 12048
0x78,0x01,0xf4,0x00,0x05,0x00,0x50,0x06, 0xce,0x01,0xa9,0xf3,0xee,0xfe,0xd3,0x00, // 12064
0x9c,0xfe,0x9b,0xff,0xac,0xfe,0x4c,0xff, 0x75,0x00,0x5f,0xff,0x3a,0x03,0x8e,0x01, // 12080
0x3e,0xff,0x7c,0x05,0xf7,0x01,0x61,0x00, 0x94,0x00,0x4f,0x01,0x1e,0x06,0x01,0x00, // 12096
0x77,0x00,0x00,0x01,0xb0,0xfe,0xdc,0xff, 0x84,0x00,0x9c,0xfb,0xb6,0xf7,0x21,0x01, // 12112
0x9f,0xff,0x48,0x00,0x4a,0xfc,0x8e,0x07, 0x22,0xff,0xf6,0xfb,0x07,0xff,0x9f,0xfd, // 12128
0x56,0x05,0x20,0xfd,0x74,0x01,0xd6,0xff, 0x9b,0x06,0x31,0x01,0x7f,0xfd,0x0d,0xff, // 12144
0x6f,0xff,0x4c,0xf5,0xfa,0x01,0xb6,0x03, 0x69,0xff,0x50,0xfe,0x4b,0x00,0xc8,0x02, // 12160
0x72,0xf9,0x6c,0x00,0x35,0xff,0x2b,0xff, 0x1b,0x00,0xa9,0xfb,0xa2,0xff,0x2f,0x00, // 12176
0x60,0xf6,0xe0,0xfa,0x7c,0x00,0x22,0xff, 0xaa,0x00,0xc7,0xff,0x1d,0x01,0x8a,0xff, // 12192
0xa7,0xfe,0xfc,0xfe,0x14,0x00,0x8b,0xff, 0x9e,0x00,0x9c,0x00,0xba,0xff,0xff,0xff, // 12208
0xa0,0x02,0xb5,0x00,0x94,0xfc,0xe4,0x02, 0x8c,0xff,0x52,0x08,0xbe,0x01,0x9a,0xff, // 12224
0x5a,0xff,0xea,0xfe,0xe5,0xfb,0xe2,0xf9, 0x8b,0x04,0x31,0xfc,0x4a,0x00,0xcd,0x03, // 12240
0x71,0xff,0xcc,0xff,0x75,0x02,0xd7,0xfb, 0xf1,0xfe,0xac,0x00,0xc9,0xff,0x13,0x01, // 12256
0xb2,0xfc,0xed,0xff,0x7f,0xfc,0x37,0x00, 0xcb,0xfe,0x91,0x03,0xe8,0x01,0xc8,0xfa, // 12272
0xe9,0xff,0x2f,0x00,0x8b,0xfb,0xee,0xfd, 0xfa,0xff,0xdb,0xfd,0xf5,0x02,0x9e,0xff, // 12288
0xac,0x01,0xf7,0xfe,0xf4,0x01,0xa4,0xfe, 0x8b,0x02,0x9d,0xfb,0xb6,0xfd,0xb3,0xfd, // 12304
0x53,0x03,0xbb,0x02,0x22,0xf7,0x6d,0xfb, 0xe0,0xfe,0x59,0x00,0xed,0xff,0x5f,0x00, // 12320
0xfb,0x00,0xfb,0x09,0xe8,0xfe,0x57,0xf9, 0x11,0x02,0x97,0xf8,0xc4,0xff,0x43,0xff, // 12336
0x19,0x00,0x2a,0x00,0x6c,0x03,0x78,0xfc, 0x3d,0x0b,0x89,0x00,0x55,0xff,0x0e,0x01, // 12352
0xde,0xfa,0x95,0xfb,0xcb,0xfe,0x39,0x03, 0xf8,0xff,0xe9,0xfd,0x26,0xf6,0xb7,0xfe, // 12368
0x7c,0xff,0x05,0xff,0xf1,0xfc,0xa8,0x01, 0x8c,0x01,0x23,0xfc,0x35,0x02,0xbc,0x00, // 12384
0xba,0x00,0x8f,0x03,0xbb,0x01,0x44,0xfc, 0xf5,0x00,0x43,0x01,0xa5,0xfc,0x09,0xff, // 12400
0xa5,0x01,0xe9,0x00,0xc4,0x00,0xc8,0x01, 0x8f,0xfe,0xd2,0xfd,0x39,0x04,0x24,0xfd, // 12416
0xa5,0x00,0x1f,0xfe,0xaf,0x00,0xa1,0xff, 0xcc,0x00,0x2a,0x02,0x8d,0x00,0xd8,0x01, // 12432
0xfe,0x01,0x28,0xfe,0xfa,0xff,0xd1,0x03, 0x54,0x03,0xf1,0xfe,0xd4,0xf7,0xb8,0xfb, // 12448
0xe3,0x09,0x0b,0x00,0xb3,0x01,0xca,0xff, 0x1b,0x01,0xf3,0xff,0xc7,0x05,0x66,0xff, // 12464
0x66,0xf7,0xd9,0xff,0xab,0xfe,0xcb,0xff, 0x4f,0xf2,0xee,0x00,0xe4,0xfa,0x4c,0xff, // 12480
0x96,0x00,0xdb,0x00,0x7a,0xfa,0xab,0xff, 0xd2,0x00,0x2f,0x00,0x0c,0x05,0x01,0x00, // 12496
0x6e,0x13,0x80,0x00,0x4b,0xf9,0x96,0x00, 0x2f,0x00,0x27,0x02,0xe6,0xff,0x9a,0x01, // 12512
0xaa,0xfe,0x5b,0x06,0x3e,0x01,0xfc,0x00, 0x2d,0x00,0xa1,0x00,0x1a,0x01,0x61,0xfd, // 12528
0xbe,0xff,0xcd,0xff,0x3a,0xfe,0xa1,0xff, 0xa6,0xfc,0x4f,0x00,0x12,0x07,0x78,0x00, // 12544
0x31,0x02,0x28,0xfe,0x30,0xfe,0x35,0x00, 0x35,0x0c,0x3b,0xfe,0xcd,0xff,0x79,0x07, // 12560
0xb1,0xfe,0xdb,0xff,0x5e,0x04,0x57,0x00, 0x4b,0x05,0x63,0x00,0x0e,0x00,0xbf,0xfe, // 12576
0x32,0xf9,0x45,0xfe,0xde,0x00,0x22,0xff, 0x37,0xfc,0xc6,0x00,0x1a,0x02,0x9d,0x02, // 12592
0x53,0x02,0x41,0xff,0x9f,0x01,0x73,0xff, 0xca,0xfd,0xee,0xff,0x7b,0x04,0x17,0x00, // 12608
0xfd,0xf9,0xbb,0xfe,0x96,0xff,0xd6,0xff, 0xe5,0xfd,0x91,0x00,0x27,0xfe,0x26,0x00, // 12624
0x82,0xff,0x0f,0xfe,0x2a,0x02,0xc1,0xfe, 0x3e,0xff,0xf6,0xff,0x6a,0xfa,0x14,0x02, // 12640
0xec,0x01,0x39,0xfe,0x92,0x04,0xe7,0xfe, 0x17,0x00,0xf2,0xff,0x76,0xfc,0x73,0x02, // 12656
0xf5,0xff,0xe6,0x06,0xce,0x0c,0xd9,0xff, 0x93,0x05,0x2c,0xff,0x96,0xfe,0x39,0xff, // 12672
0x7d,0x06,0xcb,0x09,0xd2,0x00,0xa7,0xfd, 0xdf,0x00,0xc1,0x01,0xbf,0x01,0xf2,0xff, // 12688
0x7f,0x00,0xc3,0x04,0xf6,0x00,0xaa,0x02, 0x2c,0xfd,0xb3,0xff,0x95,0x00,0xf2,0x00, // 12704
0x1a,0x01,0xb0,0x08,0x2e,0x01,0x8b,0x01, 0x51,0x04,0x1d,0xff,0x44,0xfe,0xf3,0x00, // 12720
0x02,0x00,0xaa,0x00,0xd5,0x03,0xd3,0xfd, 0xd0,0xfa,0xc0,0xff,0x6c,0xff,0xc8,0xff, // 12736
0xfb,0x00,0xe5,0x01,0xa0,0xf7,0x1e,0x00, 0x28,0xfb,0x71,0x0c,0x24,0xff,0xb3,0xfe, // 12752
0x3c,0xff,0x01,0x01,0x21,0x01,0xa4,0x02, 0x2b,0x00,0x81,0x09,0xe2,0xff,0xde,0xff, // 12768
0x96,0xfc,0xcf,0x01,0xbc,0xff,0x38,0xfd, 0xd7,0x01,0x44,0xfd,0x10,0x04,0xc4,0x00, // 12784
0xc2,0xff,0xb2,0x03,0x54,0x01,0xc2,0x00, 0x5a,0x02,0x2f,0xfe,0x07,0x03,0xcb,0xf8, // 12800
0x34,0x07,0x2e,0x08,0xd3,0xff,0xdf,0x01, 0xa4,0xf9,0x46,0x00,0xaf,0xfe,0xd9,0xf4, // 12816
0xc6,0x02,0xa3,0x01,0x1a,0x02,0x1b,0x00, 0xc7,0x03,0x32,0x04,0xe0,0xff,0xf2,0x00, // 12832
0x65,0x01,0xf1,0xfe,0x86,0x01,0x69,0x00, 0x3d,0x00,0xc3,0x10,0x01,0x02,0x46,0x01, // 12848
0xfa,0xfe,0x5f,0xff,0xc0,0x00,0x37,0xfa, 0xa6,0xfc,0xdf,0xff,0x6c,0x03,0x92,0x00, // 12864
0x15,0x01,0x0c,0x01,0x70,0xff,0x56,0xfd, 0x71,0x04,0x6b,0xff,0x6e,0x01,0x9c,0x00, // 12880
0x78,0x00,0xe1,0xfb,0x8f,0xfe,0xbc,0x00, 0x21,0x01,0xfb,0x01,0xc8,0xfd,0x01,0xff, // 12896
0xfd,0x00,0x1d,0xff,0xfc,0xfc,0xa2,0xfe, 0x7a,0xfb,0x11,0xfd,0x8c,0xff,0xb6,0x00, // 12912
0xc2,0x01,0x00,0x02,0xab,0x02,0xa7,0xfd, 0xf1,0xfd,0xd4,0x02,0xd1,0xff,0xd7,0x05, // 12928
0xfb,0xfe,0x46,0xfb,0xad,0x04,0xce,0xfe, 0x8e,0xfe,0x65,0x01,0xc9,0xff,0x52,0xfe, // 12944
0xe9,0xff,0xda,0xfd,0xdc,0xff,0x00,0xfd, 0x70,0xff,0x5b,0xff,0x4c,0x03,0x90,0x04, // 12960
0x7a,0xfe,0x62,0xff,0x74,0xff,0x3a,0xfd, 0x01,0x09,0x3c,0x00,0x86,0xfd,0x37,0x00, // 12976
0xce,0x04,0xf0,0xfe,0x9d,0xff,0x36,0x00, 0x09,0xfd,0xe2,0x03,0x9d,0xfd,0xdd,0x01, // 12992
0x79,0xfd,0x09,0x04,0xe5,0x05,0x60,0x00, 0x49,0xfd,0x77,0x04,0x79,0x0b,0x3b,0x05, // 13008
0xfd,0xfc,0xcc,0xfd,0x2e,0xff,0xc7,0xff, 0x17,0xff,0xf6,0xfb,0x24,0xff,0xca,0xfd, // 13024
0xe1,0x01,0x7d,0x01,0xf7,0xfe,0xa7,0x02, 0x9f,0x03,0x0b,0x02,0xca,0x00,0xbe,0x02, // 13040
0xcf,0x04,0x66,0xfe,0xd6,0x00,0x05,0x01, 0x44,0xfd,0x60,0xfe,0xbb,0xff,0x99,0x02, // 13056
0xe0,0xf9,0xe7,0xff,0x29,0x02,0x4e,0x00, 0xba,0xfe,0xde,0xfe,0xab,0xf5,0x01,0x01, // 13072
0x2c,0x02,0xb9,0xfc,0x53,0xff,0x28,0xf8, 0x02,0x00,0xfc,0xfe,0x1b,0x01,0x99,0x01, // 13088
0xf0,0xff,0xf2,0x01,0x98,0x03,0xa1,0xff, 0x3d,0x09,0x1a,0xfa,0xbf,0xff,0x4b,0x01, // 13104
0x00,0xfc,0x79,0x06,0x5b,0xfe,0xd0,0xfc, 0xc8,0xff,0x83,0x07,0x8e,0xf9,0x6e,0x01, // 13120
0x29,0xff,0xc3,0x04,0x64,0xfb,0x40,0x01, 0x98,0xff,0xe4,0xfe,0x3e,0x08,0x4a,0x00, // 13136
0x55,0x03,0xba,0x02,0xc7,0xfc,0x8c,0xfd, 0x11,0x00,0x45,0x00,0x11,0xff,0xbc,0xf7, // 13152
0xd3,0xff,0x97,0xff,0x24,0xfd,0xdf,0xfd, 0xb6,0x00,0xf9,0xfe,0xb8,0xfd,0x60,0xf9, // 13168
0x02,0x03,0xcf,0xfb,0xf2,0x03,0x1e,0x02, 0xc4,0xff,0xa6,0xff,0x8a,0xfd,0x33,0xff, // 13184
0x4f,0x02,0xed,0xfd,0xae,0xf5,0x3d,0x00, 0x2d,0xfd,0xf8,0xfb,0x16,0x01,0x32,0x01, // 13200
0xc6,0x07,0xaa,0xfc,0xc4,0x00,0x48,0x00, 0x4d,0xfe,0x9f,0xfe,0x0c,0xff,0x3e,0x01, // 13216
0xb7,0xfd,0xa5,0xff,0x8e,0x01,0xf1,0xfd, 0xa6,0x00,0x06,0x04,0xe3,0x01,0x4e,0x00, // 13232
0x79,0xff,0xe1,0xfe,0x2b,0x04,0x83,0xf8, 0x73,0xff,0xf8,0x00,0x93,0x01,0x5a,0xfe, // 13248
0x42,0xfd,0xf0,0x01,0x6d,0x02,0x16,0x02, 0x63,0xfc,0x65,0x01,0xdc,0xfe,0xe1,0x00, // 13264
0x93,0xff,0x01,0x06,0xa8,0x00,0x7f,0x00, 0xf6,0x01,0xdd,0x00,0x65,0xff,0xa2,0xff, // 13280
0x61,0x01,0xcf,0xfd,0xf6,0x01,0xb5,0x01, 0x23,0xff,0x64,0x00,0x75,0xff,0xe8,0xfd, // 13296
0xf7,0x05,0x7c,0xff,0x23,0xff,0x78,0xfe, 0xbb,0xfe,0x27,0x00,0x70,0xfe,0x28,0x01, // 13312
0x43,0x00,0xe8,0x01,0x27,0x00,0x5d,0x01, 0x3d,0x01,0x50,0x00,0xb9,0xfd,0x66,0x02, // 13328
0x8d,0xfe,0xe0,0xfe,0x85,0x00,0xbd,0xf8, 0x5b,0x00,0x5d,0xf4,0x49,0xff,0xe0,0x00, // 13344
0xf3,0xfe,0x43,0x00,0xec,0x01,0xab,0x05, 0x39,0xff,0x61,0xff,0x5f,0x00,0x3d,0xfc, // 13360
0x5e,0x00,0x1d,0x01,0x8d,0xff,0xd5,0x00, 0xeb,0xff,0xfa,0x02,0xa0,0x01,0xc7,0xff, // 13376
0xcb,0x03,0x09,0x00,0x70,0x01,0xad,0x01, 0x43,0x04,0x79,0x00,0xb7,0xff,0x48,0xff, // 13392
0x0c,0x01,0xb3,0x00,0x5a,0x01,0x4d,0xff, 0x8b,0xfd,0x4e,0x01,0xff,0xfd,0x26,0x01, // 13408
0x37,0x01,0x58,0xff,0x19,0x01,0xc0,0xfe, 0x87,0xfc,0xd7,0x05,0x30,0xff,0xef,0x03, // 13424
0x58,0xfe,0xef,0x01,0xe2,0x01,0xcb,0x00, 0xf1,0xfe,0x4d,0xfe,0xa8,0xff,0x99,0xfe, // 13440
0xd1,0xfe,0x94,0xf4,0x16,0xfe,0xef,0x04, 0x9d,0xff,0xb8,0x05,0x60,0xfe,0x93,0x01, // 13456
0x9c,0x01,0xcf,0xfd,0x07,0xff,0xa8,0x08, 0xa6,0xf4,0xcf,0xfd,0xc2,0x01,0xf4,0xff, // 13472
0xa3,0x06,0x70,0x05,0x03,0x02,0x19,0xfe, 0xec,0xf9,0x74,0x00,0x66,0x01,0x6c,0xff, // 13488
0xb2,0x01,0xdf,0x04,0x7c,0x00,0x7d,0xff, 0x0f,0x00,0x33,0x00,0x83,0x00,0x18,0x04, // 13504
0x11,0xf5,0x40,0x02,0x82,0x00,0x01,0x01, 0xb1,0x00,0x70,0x00,0xf4,0xfe,0xda,0xff, // 13520
0x95,0x01,0x0f,0x03,0x03,0xff,0xac,0x01, 0x0e,0xfd,0xdb,0xfd,0x1b,0xff,0x14,0xff, // 13536
0xdb,0xff,0x6c,0x04,0x4a,0x04,0x6b,0x01, 0x89,0x01,0x59,0x00,0x9f,0xfe,0x2c,0x00, // 13552
0x67,0xf8,0x61,0x00,0x4a,0x05,0xde,0xfe, 0x3a,0x01,0xe9,0xfc,0x9a,0x00,0xd5,0xff, // 13568
0x1a,0xff,0x03,0x00,0x13,0x01,0xc8,0x00, 0xb9,0xfd,0x78,0x00,0x54,0xff,0x9e,0x00, // 13584
0x49,0xff,0xfd,0xff,0x88,0xfe,0xb1,0xfe, 0x72,0x03,0xce,0xff,0xf9,0xfc,0xad,0xfd, // 13600
0x3d,0xfd,0xe7,0x00,0x79,0x02,0xf5,0x02, 0xd9,0xfe,0x27,0x00,0xc9,0x00,0x87,0x02, // 13616
0x51,0xfe,0x0b,0x01,0x09,0x00,0xca,0xff, 0xd5,0xfc,0xfe,0x00,0x4a,0x00,0x71,0x00, // 13632
0xe0,0xff,0x05,0x01,0x41,0xfe,0x49,0x00, 0x88,0xff,0x1e,0x00,0xe6,0xfc,0x7d,0xfe, // 13648
0x92,0xff,0x45,0x04,0xa0,0xfd,0x26,0xff, 0x29,0x00,0xbb,0xff,0xaf,0x00,0x67,0xff, // 13664
0x15,0xfd,0x4e,0x00,0x0e,0xff,0x51,0x03, 0x97,0xfc,0x84,0xfd,0xa1,0x03,0x02,0xfe, // 13680
0xd3,0x03,0x3c,0x01,0x3f,0x00,0xc8,0xfe, 0xd9,0xfe,0x50,0x01,0xae,0xfb,0x03,0x02, // 13696
0x75,0xfe,0x76,0xfe,0x1b,0x01,0x50,0xff, 0x5d,0x01,0x4e,0xf9,0x88,0x00,0x8e,0x00, // 13712
0x59,0x00,0xd2,0x00,0x1e,0x01,0x6b,0x01, 0x9f,0xff,0xb3,0x00,0x44,0xff,0xcf,0x00, // 13728
0x8f,0x00,0xb6,0xff,0xca,0xfd,0x0e,0xff, 0xab,0xfd,0xbe,0xff,0xb3,0x00,0xaf,0xfe, // 13744
0x21,0x00,0x53,0x01,0x40,0x01,0x2d,0x00, 0x4b,0xfd,0x0b,0xfc,0xf7,0x00,0xc0,0x01, // 13760
0xa6,0xff,0xc8,0xff,0x96,0x00,0xee,0xfe, 0x66,0x03,0x37,0x09,0x0e,0x00,0xcb,0x02, // 13776
0xfa,0x02,0x8d,0x01,0xf6,0xff,0xd8,0xff, 0xc1,0xff,0x4d,0x00,0x1c,0x01,0xdf,0x02, // 13792
0x45,0xff,0x70,0x01,0xcc,0xfe,0xce,0x00, 0xa9,0x07,0xe7,0x00,0x4e,0x00,0x3e,0xff, // 13808
0x15,0xfe,0xec,0x00,0xef,0x00,0xf8,0xff, 0xe8,0xfa,0x5f,0x01,0xe6,0x00,0x54,0x01, // 13824
0x0d,0x02,0x72,0xfe,0x27,0x01,0xf0,0xfb, 0x4f,0xff,0xb2,0x02,0xc6,0xf6,0x08,0xfb, // 13840
0xed,0xff,0x54,0xfd,0xcf,0x00,0xd5,0xfe, 0x37,0xff,0x58,0x06,0x54,0x09,0x1d,0x03, // 13856
0x51,0x01,0xdf,0x01,0x83,0xff,0xb3,0x04, 0xc4,0x00,0xe8,0xff,0x23,0x04,0x2b,0xfa, // 13872
0xe2,0x00,0xbd,0xff,0xd7,0x02,0x8a,0xff, 0x55,0xfd,0x30,0xfe,0x10,0x01,0xd5,0xff, // 13888
0x7f,0x02,0xc0,0x04,0x36,0x01,0xb8,0x00, 0x51,0x00,0x08,0xfb,0xea,0x01,0x6f,0xfd, // 13904
0x2b,0x01,0xa4,0x00,0xd1,0x01,0x48,0xfd, 0x8e,0xfc,0x2a,0x00,0x08,0x00,0xc2,0xfe, // 13920
0x34,0xff,0x49,0x00,0xe5,0xfc,0xa1,0x02, 0x07,0x03,0x86,0x01,0xdd,0x01,0xb9,0xfd, // 13936
0xe3,0x00,0x12,0x01,0x66,0xfe,0x6d,0xfa, 0xc1,0xff,0x7f,0xf9,0x84,0x01,0x26,0x06, // 13952
0x81,0xfe,0xc4,0xfb,0x15,0x13,0xf8,0xff, 0xd1,0xff,0xed,0xfc,0xe2,0xff,0x3a,0x01, // 13968
0x24,0xfe,0x35,0x00,0x4f,0xf8,0x48,0x01, 0xae,0x00,0x6f,0xfe,0xe2,0x01,0xbe,0x09, // 13984
0x82,0x04,0xe0,0xfc,0x35,0x00,0x7a,0x00, 0xb0,0xff,0xd3,0x02,0xe0,0x00,0x7b,0x03, // 14000
0x77,0x04,0xf0,0xfc,0xa2,0xfe,0x21,0x01, 0xd7,0xff,0x70,0x02,0x02,0xfa,0xaf,0xfb, // 14016
0xf9,0x03,0x34,0x03,0xed,0x03,0x82,0x03, 0x10,0x00,0x64,0x01,0x53,0x00,0xbe,0x00, // 14032
0x0f,0x02,0x79,0x06,0x14,0x02,0x99,0xf6, 0x9d,0x00,0x1d,0x02,0xc1,0x01,0x3e,0x0f, // 14048
0x3e,0xfc,0x82,0xfe,0x5a,0x02,0x39,0xff, 0x58,0xfc,0x01,0x02,0x8e,0xfe,0x36,0xfc, // 14064
0x8b,0x01,0xbd,0x00,0x14,0xf8,0x3e,0x01, 0xab,0xff,0xfd,0x00,0xaf,0xff,0xb7,0x00, // 14080
0x3c,0x01,0xea,0xf4,0x00,0x01,0xb6,0xfd, 0x26,0x00,0x92,0xfe,0x25,0x00,0xcd,0xff, // 14096
0xa3,0x01,0x65,0xff,0x24,0xf9,0x66,0x02, 0x6e,0xfe,0x02,0xff,0xeb,0x03,0x3a,0x00, // 14112
0x5c,0x00,0x98,0x03,0xc7,0x05,0x66,0x04, 0x39,0xfa,0xd3,0x00,0xb1,0x02,0x38,0x08, // 14128
0x52,0xfd,0x78,0xfe,0xeb,0x00,0x7f,0xfc, 0x16,0xff,0x44,0xf0,0x17,0xfd,0xcf,0xfd, // 14144
0x3e,0x01,0xc2,0xff,0x80,0x00,0x87,0xfd, 0xaa,0xfd,0x2f,0x02,0x18,0xfd,0x3c,0x06, // 14160
0x15,0x0b,0x9e,0x00,0xc8,0xfe,0x5e,0x01, 0x99,0x00,0xf4,0xff,0x65,0xff,0x3d,0x01, // 14176
0x3b,0x01,0xf0,0xff,0xc3,0x01,0x29,0x01, 0x29,0xfe,0x18,0x00,0xa4,0xfc,0xa5,0xfa, // 14192
0xb5,0x02,0xae,0xfe,0xc4,0x00,0xda,0xfe, 0x6f,0x00,0xc0,0x00,0xc5,0x03,0xae,0xfe, // 14208
0xda,0xff,0x58,0x02,0xf1,0x02,0x77,0x00, 0x3e,0x04,0xf3,0xfa,0xf6,0xf8,0x0d,0x02, // 14224
0x91,0xfe,0x88,0x00,0xdb,0x02,0x1e,0xf5, 0xd8,0x01,0xf1,0x04,0xa1,0xfc,0x3f,0xfd, // 14240
0x00,0xff,0x1d,0xff,0x24,0xfe,0xdf,0x04, 0xa7,0x02,0x6a,0xfb,0x65,0x04,0xc6,0xfd, // 14256
0x5e,0x01,0x21,0x00,0x98,0xf0,0x86,0x00, 0x19,0x01,0xe9,0x00,0x37,0xfb,0x22,0x00, // 14272
0xd1,0xff,0x7c,0xfc,0x16,0xf7,0xc6,0xfc, 0xa2,0xff,0x63,0x00,0x23,0x00,0x1e,0xfe, // 14288
0x52,0x01,0x76,0xfe,0x28,0x00,0xf6,0x03, 0xd2,0xff,0xb4,0xfd,0x0d,0x02,0x88,0x00, // 14304
0xc4,0x00,0x25,0xfd,0x84,0x00,0x84,0xfe, 0x98,0xff,0xd0,0xff,0xd1,0x01,0xd7,0x01, // 14320
0x2e,0x01,0x31,0xff,0x90,0xfd,0x69,0x02, 0xab,0x02,0xcc,0x01,0x40,0xff,0x9a,0x03, // 14336
0xd3,0xfd,0x36,0xfd,0xce,0xff,0x37,0xfe, 0x9f,0xf9,0xf9,0x01,0xaf,0xfe,0x7a,0x04, // 14352
0x7f,0x00,0x54,0x00,0x40,0x02,0xd8,0xfe, 0x6e,0x02,0xf6,0xfd,0x9d,0xfc,0x68,0xfd, // 14368
0xf6,0xfc,0x61,0x01,0x8b,0x03,0x92,0x04, 0x57,0xfd,0x44,0x0f,0x7e,0xfe,0xbc,0x03, // 14384
0xb3,0x02,0x39,0xff,0x75,0x03,0xd0,0x05, 0x30,0xff,0x5b,0x04,0x67,0x02,0xea,0x01, // 14400
0x6a,0xfd,0xa8,0xfb,0xbc,0xfd,0x3b,0x01, 0xf7,0x01,0x47,0xfd,0xa5,0x04,0xa8,0x00, // 14416
0xbd,0xfd,0x92,0xfe,0x63,0x02,0x3a,0x00, 0x84,0xff,0x54,0xfe,0x77,0x09,0x2b,0xf7, // 14432
0xb8,0x01,0x19,0x00,0x1b,0xfe,0x8a,0x02, 0xea,0x01,0xca,0x02,0x90,0xfe,0x86,0x00, // 14448
0xbc,0xfb,0x80,0xff,0x86,0xfd,0x87,0xfe, 0xa1,0xfe,0x83,0x00,0x52,0xff,0x52,0xff, // 14464
0x99,0x00,0xdc,0x03,0x04,0x01,0x91,0xfe, 0xe8,0x02,0x00,0xfd,0xad,0x06,0x76,0x03, // 14480
0xa8,0x00,0x1e,0x02,0xad,0xfe,0x77,0x02, 0x29,0xff,0x11,0xff,0x5f,0x01,0xdf,0x00, // 14496
0xa6,0xfe,0x70,0xfd,0x4c,0xfc,0xc6,0xff, 0x8a,0x00,0xed,0xfd,0x03,0x06,0x9a,0x00, // 14512
0xc1,0xfe,0xf9,0x00,0xd8,0x02,0x6e,0xf9, 0x16,0x01,0x79,0xff,0x5b,0xfe,0x86,0x03, // 14528
0x5e,0x02,0x33,0xfd,0xef,0xfe,0x5c,0xfd, 0x39,0xff,0x40,0x05,0x3a,0xfe,0xeb,0x00, // 14544
0xc8,0x04,0xfd,0x00,0xf9,0xfe,0x4b,0x03, 0x04,0xff,0x16,0x01,0xce,0xfc,0x6b,0xff, // 14560
0xdd,0x00,0x76,0x01,0x0b,0xff,0x35,0x01, 0x6a,0x03,0x70,0x00,0x04,0xfb,0xce,0x00, // 14576
0x77,0x01,0x0f,0xff,0x14,0x05,0xf7,0xff, 0xb6,0xfe,0x2d,0xfd,0x2b,0x01,0x47,0xff, // 14592
0x74,0x01,0xc2,0x00,0x0d,0x00,0x2e,0x00, 0xe5,0xfe,0x51,0x03,0x68,0xfc,0xea,0x03, // 14608
0xd2,0xfe,0x0b,0xf7,0xcf,0xff,0xd7,0xfb, 0xc0,0xfe,0x86,0xfd,0x12,0x02,0x23,0xff, // 14624
0xfd,0xff,0x47,0xff,0xb8,0x00,0x32,0xfa, 0x3e,0x02,0x50,0xff,0xf7,0xff,0x81,0xff, // 14640
0xcd,0xfb,0xd3,0xfc,0x5a,0x03,0xc7,0xff, 0x6c,0x00,0xae,0xfa,0xb7,0xfd,0x23,0xfb, // 14656
0x8c,0x03,0x45,0xfd,0x60,0xfe,0xcc,0xff, 0xa2,0xfe,0xe5,0x01,0x6d,0xff,0xfd,0x01, // 14672
0xa1,0xfd,0x16,0x01,0xc2,0x09,0xc4,0x02, 0x1c,0x01,0x7b,0x04,0xb1,0xff,0xa3,0x01, // 14688
0x8e,0x01,0x36,0xfe,0x7d,0xfd,0xc0,0xff, 0xbd,0x00,0x41,0xfd,0xb0,0x02,0x9d,0xfc, // 14704
0xeb,0xff,0x90,0x00,0xbe,0xfc,0x62,0x01, 0x62,0xff,0x84,0x00,0xe7,0xfe,0xb9,0x01, // 14720
0xdf,0x02,0x26,0x01,0xab,0xfe,0x63,0x01, 0xdd,0xfd,0xf2,0xfd,0xf0,0x02,0xf2,0x03, // 14736
0xb0,0x01,0xc4,0xff,0x72,0xf9,0x64,0x02, 0x6e,0xfe,0xd8,0x00,0x05,0xfe,0xe1,0x01, // 14752
0x5d,0xfd,0xcd,0x02,0x2b,0xfd,0x1d,0xfd, 0xa0,0xfe,0xa1,0x01,0x28,0x02,0xd3,0xfc, // 14768
0x33,0x00,0x5f,0x01,0xee,0x00,0xf1,0xfe, 0xc3,0x01,0x8b,0xfb,0x82,0x03,0x7e,0x03, // 14784
0xd0,0xfe,0xae,0xff,0xb7,0xfc,0xc6,0xfe, 0x3b,0x01,0x63,0x04,0xb5,0xfc,0xde,0x03, // 14800
0x55,0x00,0xc3,0x02,0x1a,0xff,0x3c,0x02, 0xf4,0x00,0x63,0xff,0x7a,0x01,0x6f,0xff, // 14816
0x6f,0x00,0xa8,0x00,0xe4,0xfd,0x72,0xfe, 0x81,0xfc,0x3b,0x00,0xfe,0x00,0x8d,0xff, // 14832
0xaf,0xff,0xb5,0xfe,0x3f,0x00,0x1b,0xfd, 0x24,0xfa,0x7e,0x00,0x3d,0x02,0x01,0xfd, // 14848
0xf1,0xfc,0x9f,0xfd,0x80,0x08,0xa4,0x02, 0xd1,0xf8,0xba,0xfe,0x39,0xfd,0x7f,0x00, // 14864
0x23,0x00,0x03,0xff,0xe2,0xff,0xbf,0x00, 0x92,0xfd,0x49,0xfd,0x55,0xfd,0x3d,0x04, // 14880
0x3b,0xff,0x55,0x00,0xa3,0xff,0xfc,0xfe, 0x85,0x00,0x6e,0x0c,0x73,0x00,0x6c,0xfe, // 14896
0xe0,0x01,0xf9,0xfe,0x0f,0xff,0xaf,0xff, 0x2b,0x02,0xc6,0xfd,0x65,0x02,0x5a,0x03, // 14912
0x2a,0x00,0x2b,0x02,0x63,0xfd,0xe5,0xff, 0xb3,0x06,0x26,0xfc,0x7a,0x02,0xf3,0xff, // 14928
0x73,0xfd,0x63,0x00,0xc1,0xfd,0x86,0x01, 0x80,0xfd,0x3a,0x03,0xef,0xfe,0xf6,0x02, // 14944
0xb4,0x00,0x52,0xfc,0x83,0x03,0xd3,0xf4, 0xce,0xff,0x77,0x01,0x32,0xfa,0x04,0xfe, // 14960
0xd0,0x00,0xcb,0xfe,0x61,0xff,0xbc,0xfe, 0x9b,0x00,0x2d,0x0c,0xe6,0x07,0x45,0x00, // 14976
0x4a,0x03,0x61,0xfe,0xcc,0x01,0x97,0x00, 0x88,0xff,0xbf,0xfd,0x35,0x03,0x10,0xf7, // 14992
0xa2,0x00,0x20,0x03,0x47,0x01,0x93,0x01, 0x8b,0x00,0x1a,0x02,0x62,0x01,0x93,0xfe, // 15008
0x83,0x03,0xaa,0x06,0x66,0x00,0x2e,0x01, 0x0c,0x00,0x0b,0xf6,0x33,0x00,0xf9,0xff, // 15024
0xf7,0xfd,0xff,0x00,0x0f,0x03,0x18,0xfc, 0x0e,0xfc,0x21,0x02,0x90,0x00,0xd0,0x02, // 15040
0x90,0x00,0xc3,0x00,0x90,0xfd,0xe6,0x00, 0x04,0x02,0xe7,0xfe,0xeb,0xff,0xd8,0xfe, // 15056
0x32,0xff,0xa0,0x01,0x5d,0xfd,0xbd,0xfb, 0x04,0xff,0x68,0xf4,0x95,0x03,0xcd,0x01, // 15072
0x84,0xfe,0x46,0xfb,0xfb,0x12,0xd7,0xfe, 0x33,0x01,0x44,0xfb,0xce,0xff,0x74,0x01, // 15088
0x4e,0xfd,0x88,0xff,0xe5,0xf7,0x2c,0xfe, 0xa3,0xff,0xde,0xfd,0x62,0x00,0x29,0x0b, // 15104
0x0e,0x06,0xaf,0xfb,0xfd,0x01,0x98,0x01, 0x3c,0x01,0xc1,0xfe,0xe0,0x01,0x4f,0x00, // 15120
0xb3,0xfe,0x49,0xfb,0x3d,0xff,0xb5,0x01, 0x75,0xff,0xeb,0x01,0xfa,0xfb,0x60,0xff, // 15136
0xca,0xff,0xf0,0xff,0x75,0x06,0xbb,0x04, 0x53,0xff,0x1b,0x00,0x00,0x03,0x55,0x03, // 15152
0xba,0x00,0x6a,0x05,0xa4,0xff,0xa7,0xf7, 0xe4,0xfe,0xbf,0x05,0x74,0xfb,0xa4,0x00, // 15168
0x7a,0xff,0x6b,0xfa,0x15,0x03,0x21,0xfb, 0xac,0xff,0x83,0xf9,0xa5,0xfb,0x9f,0xfc, // 15184
0x3a,0x01,0xf4,0xfb,0x40,0x00,0x77,0xfd, 0xb5,0x00,0x61,0xfd,0x53,0x00,0x93,0x01, // 15200
0xfc,0xfb,0xbe,0xfe,0xc4,0xff,0xd7,0xfc, 0xeb,0xff,0x70,0xff,0x0e,0xfc,0xbb,0xfd, // 15216
0xae,0x00,0xc2,0xfd,0x7c,0xfd,0x11,0x02, 0x0a,0xfc,0x39,0xfc,0xe0,0x00,0xbc,0xfe, // 15232
0xad,0xfe,0x78,0x03,0x56,0xff,0x50,0xfe, 0x33,0x01,0x0c,0x02,0x6c,0xfd,0x13,0x01, // 15248
0xd5,0x04,0xa8,0xff,0x24,0xfe,0xd4,0xfe, 0x23,0xff,0x59,0xff,0xd0,0x04,0xfa,0xfe, // 15264
0x58,0x0e,0x63,0xfa,0xe3,0xfc,0x9e,0x02, 0x6d,0x04,0x07,0x00,0xf0,0x01,0xb2,0x01, // 15280
0x56,0x01,0xa3,0xfc,0xbe,0x05,0x3a,0x00, 0xb8,0x04,0x98,0xfe,0xfc,0xff,0x3a,0x01, // 15296
0x0c,0xfe,0x65,0x01,0x26,0xfb,0xe6,0x01, 0xd8,0xfe,0x16,0xfa,0x95,0xfd,0x49,0x01, // 15312
0x09,0xfc,0xe9,0x02,0xd5,0xfd,0xa0,0x02, 0x9d,0xfd,0x4f,0xff,0x64,0x00,0x18,0x00, // 15328
0xfd,0x01,0x8d,0x00,0x04,0x06,0x05,0x08, 0xe1,0xfe,0x28,0x01,0xaa,0xff,0x80,0x01, // 15344
0x0f,0xfc,0x2c,0xfc,0xac,0xfe,0xfe,0xff, 0xf4,0xf9,0xb9,0x01,0x10,0xff,0xeb,0x02, // 15360
0x1a,0x02,0x78,0xfb,0x1f,0xfb,0x99,0x01, 0xb5,0xfd,0xda,0xfe,0x76,0x00,0x83,0x01, // 15376
0xe0,0x09,0x9b,0x00,0x21,0x00,0x37,0x02, 0x2a,0x01,0xfc,0xfc,0xe9,0x00,0x21,0x01, // 15392
0x90,0xfe,0x0c,0xff,0xa2,0x02,0x18,0xfd, 0x05,0xfe,0xb3,0xfe,0x00,0x00,0x9f,0xff, // 15408
0x18,0xfd,0xef,0xfe,0x2c,0x03,0x2b,0x02, 0xe6,0xfd,0x3d,0xff,0xca,0x00,0x9f,0x02, // 15424
0x73,0x05,0x4a,0x01,0x46,0xfe,0x9d,0x02, 0xcb,0xff,0x92,0x01,0xc9,0xfa,0x05,0x01, // 15440
0x56,0x02,0xa2,0xfd,0x01,0xf9,0xb7,0x01, 0xe1,0xff,0x46,0xfe,0x60,0x02,0x9d,0x00, // 15456
0x09,0x01,0xc5,0xfb,0xf3,0xfb,0xfb,0xff, 0x6e,0xfe,0xf2,0x02,0xa7,0xff,0x5d,0xfe, // 15472
0xdf,0xfd,0x98,0xfb,0x7a,0x01,0x19,0xfe, 0x42,0xfc,0x3d,0xfe,0x35,0xfe,0x97,0x00, // 15488
0xe5,0xfc,0x37,0xff,0x6d,0x01,0x95,0xfd, 0xa2,0x00,0x5b,0x00,0xab,0xff,0x7d,0x00, // 15504
0xff,0xfc,0x84,0xfe,0x21,0x00,0xb8,0xfc, 0x94,0xfe,0xc4,0x00,0x2c,0x02,0x0b,0x01, // 15520
0x7c,0xff,0x7e,0xfe,0x7a,0xf6,0x7a,0x00, 0xab,0x0a,0x4d,0x01,0xca,0x00,0xe4,0xfe, // 15536
0x0e,0x01,0x31,0xff,0x1f,0x0c,0x13,0xff, 0xf7,0x02,0xfa,0xee,0x3d,0x01,0x17,0xfe, // 15552
0xdd,0xfb,0x08,0x01,0xd8,0xfd,0xc0,0x00, 0xac,0x00,0x2f,0xfe,0xdb,0xfc,0xa6,0xff, // 15568
0xb1,0xff,0x90,0x00,0x79,0x01,0xcc,0xfe, 0x81,0x06,0xb8,0xff,0x7b,0xfd,0xe2,0xff, // 15584
0x22,0x00,0x1b,0xfe,0x3f,0x00,0xc9,0xff, 0x4c,0xfe,0xc2,0x01,0xb1,0x00,0xc4,0x06, // 15600
0xa1,0xfd,0xbe,0xff,0x3c,0x01,0x91,0xfe, 0x08,0x05,0x8c,0x02,0x22,0x01,0xd3,0x09, // 15616
0x22,0xfa,0x3b,0xff,0xb4,0xff,0xdb,0x00, 0x54,0xff,0x7c,0xfa,0x1e,0x00,0xf7,0xfe, // 15632
0x98,0x04,0x88,0xff,0xd9,0xff,0xdf,0x00, 0x5c,0xfd,0x69,0xf6,0xb5,0xfe,0xd2,0x00, // 15648
0xc0,0x01,0xe2,0xfe,0x6d,0xfe,0x1d,0x00, 0x3d,0xff,0x44,0x01,0xb1,0xfe,0xc0,0xff, // 15664
0x6d,0x00,0x65,0x00,0x64,0xff,0x71,0x06, 0x92,0xfd,0x28,0xff,0xa9,0xfe,0x90,0xfd, // 15680
0x12,0xff,0xe0,0xff,0x02,0x04,0xce,0x00, 0x2a,0xfe,0xe8,0x01,0x60,0x00,0xd7,0xff, // 15696
0xda,0xfe,0x71,0x00,0xbb,0x02,0x08,0x00, 0xb5,0x01,0xaf,0x00,0x60,0x04,0x4a,0xfd, // 15712
0x01,0x00,0x0d,0xff,0x18,0xfd,0xb5,0xfe, 0x34,0xfd,0x0b,0x02,0xc1,0xff,0x96,0x00, // 15728
0x62,0xff,0xe0,0xfd,0x8a,0xff,0xd9,0xf9, 0xda,0xff,0xc5,0xfc,0x8c,0xfe,0x08,0x01, // 15744
0x04,0xfd,0xf0,0xff,0xaf,0x06,0xce,0xfa, 0x28,0xfe,0xa3,0xfd,0x3e,0xff,0xa3,0x00, // 15760
0x85,0xfe,0x79,0x00,0xa3,0xff,0x7e,0x00, 0x61,0xff,0xb0,0x00,0xaa,0xfb,0x4e,0xfc, // 15776
0xa8,0x00,0x6a,0xfc,0x92,0x00,0x1c,0x01, 0x0b,0x01,0xb4,0x03,0xe5,0xfd,0x70,0xf8, // 15792
0x20,0xfc,0xcc,0x00,0x6d,0xff,0x79,0xfc, 0x2e,0x0a,0x3e,0x02,0x49,0xff,0x33,0xfe, // 15808
0x8f,0x00,0x30,0x07,0xfb,0xfc,0xd1,0xff, 0xc9,0x02,0x87,0x00,0x18,0x02,0xa5,0xfd, // 15824
0x68,0x00,0x3e,0xfe,0x1b,0xf6,0x15,0x07, 0xa2,0x02,0x62,0xfe,0x56,0x02,0x45,0xfc, // 15840
0xd2,0xfe,0x2c,0xff,0xf7,0x02,0xa3,0x00, 0x02,0x04,0x74,0xfd,0x7a,0x0a,0xe3,0x02, // 15856
0x5d,0xfd,0x90,0xfe,0x64,0xfc,0x89,0x01, 0xa7,0xfd,0x7f,0xfd,0x6b,0x02,0x19,0x09, // 15872
0x58,0xf4,0xe8,0x02,0xbe,0xf7,0x07,0x00, 0x9b,0xfc,0x96,0xfe,0x49,0xff,0xf8,0xfe, // 15888
0x87,0x01,0x37,0x01,0xe7,0xff,0x5e,0x02, 0xc9,0xfe,0xcc,0xfe,0xf9,0x05,0x54,0x00, // 15904
0x81,0xfe,0x34,0xfe,0x7c,0xf5,0x28,0x03, 0x82,0xfd,0xb2,0xff,0x69,0x02,0xc7,0x00, // 15920
0xcc,0x00,0x57,0xff,0x16,0xff,0xe9,0xfe, 0xba,0xfc,0x25,0x01,0xfe,0xfc,0x4c,0x05, // 15936
0x10,0x01,0x66,0xfd,0xdf,0x03,0x96,0x01, 0x1b,0xfb,0x2a,0xfa,0x67,0x07,0x93,0x02, // 15952
0x50,0x01,0x65,0xff,0x29,0x05,0x8c,0xfe, 0x54,0xff,0x22,0xfd,0x57,0x00,0xb2,0x00, // 15968
0xfd,0xfa,0x41,0x00,0x7a,0x04,0xed,0x01, 0x87,0xfc,0xde,0xff,0x4a,0xfe,0xf2,0x00, // 15984
0x4d,0x00,0x53,0x00,0x15,0x01,0x1f,0x02, 0xca,0xfd,0xe8,0x00,0x28,0xff,0xc7,0xfb, // 16000
0x1a,0xfb,0x75,0x02,0xe0,0x00,0x06,0xfd, 0xf5,0xfe,0x79,0x00,0x64,0xff,0xcd,0xfa, // 16016
0x25,0x01,0xaf,0x00,0xc0,0xff,0xcd,0x02, 0xe1,0xfd,0x6d,0xff,0x4e,0xff,0x36,0xfe, // 16032
0x8c,0xff,0x84,0x00,0xe2,0xf9,0x93,0x03, 0x11,0x00,0xeb,0x00,0x8a,0x01,0x37,0x02, // 16048
0xb4,0x02,0xa0,0xf8,0xa9,0xfe,0x8c,0xf7, 0xdf,0x04,0xef,0xfb,0xf4,0x01,0x49,0xfe, // 16064
0x38,0x00,0x7c,0xff,0x70,0xff,0xae,0xfc, 0xcf,0xfc,0x50,0xfe,0x08,0xff,0x2a,0x00, // 16080
0xc8,0xff,0xaf,0x04,0x4a,0x02,0x25,0xff, 0xc4,0xfe,0x4a,0x00,0x59,0x01,0x82,0x00, // 16096
0x07,0xfc,0x08,0x00,0x98,0xfe,0xf5,0x00, 0x4a,0x00,0xb1,0x00,0xea,0xfe,0xea,0x00, // 16112
0xae,0xff,0x98,0xfd,0x37,0xff,0xba,0xfd, 0x65,0xfe,0xd8,0xfe,0x3c,0x03,0xee,0xff, // 16128
0x29,0x01,0xed,0xff,0xe7,0x01,0x42,0x08, 0x74,0xff,0x55,0x0a,0xcf,0x01,0xe3,0xff, // 16144
0x4d,0xff,0x9d,0xfe,0x93,0xfe,0xcd,0xfe, 0x8a,0xfe,0xc8,0x00,0x5c,0xfb,0x28,0xff, // 16160
0x6a,0xff,0x00,0xff,0x63,0x03,0x9a,0xf9, 0x54,0x00,0x41,0x00,0x33,0xff,0x04,0xff, // 16176
0x47,0x01,0xd4,0x00,0xe7,0xfe,0xdf,0x00, 0x39,0xfd,0x77,0x00,0x47,0xfe,0x71,0x01, // 16192
0xdb,0xfe,0x05,0xfe,0x44,0xff,0xc5,0x00, 0x5c,0x00,0x1e,0x00,0x4c,0x00,0x4b,0xfd, // 16208
0x78,0xfe,0x30,0x02,0x68,0xfd,0x71,0x03, 0x49,0x00,0x9a,0xf7,0xd9,0x00,0x8b,0xfe, // 16224
0xd7,0xff,0x1e,0xff,0x1b,0xfd,0xef,0xff, 0x2b,0x00,0x76,0xfe,0x0e,0x02,0xd7,0xff, // 16240
0x3e,0xff,0x45,0x03,0xfe,0x00,0xd9,0xfc, 0x57,0xfe,0x4d,0xfc,0xa0,0x0d,0x1b,0xff, // 16256
0xc6,0xf9,0x21,0x01,0x17,0x00,0x57,0xff, 0xca,0x01,0xa0,0x00,0x45,0xff,0x86,0x02, // 16272
0xac,0xf8,0x45,0xf8,0x10,0x01,0xa2,0x01, 0xa3,0xfe,0xa8,0x00,0xfe,0xfb,0x74,0xfc, // 16288
0x17,0x03,0x30,0xfe,0xf3,0xff,0x4c,0x01, 0x8a,0x02,0xb5,0xfb,0xe9,0xfc,0x45,0x01, // 16304
0xa0,0xfc,0xd2,0x00,0x56,0xff,0xc8,0xff, 0x34,0xfe,0x07,0xff,0xed,0xfe,0xc2,0x00, // 16320
0x9d,0x02,0xdd,0xff,0xc1,0xff,0xb2,0x02, 0x3e,0xfe,0x32,0x00,0x4f,0x03,0x26,0x01, // 16336
0x2b,0x01,0x29,0x03,0x8e,0x02,0xa8,0xfc, 0x9d,0x02,0xa7,0xfc,0x54,0xff,0x88,0x07, // 16352
0x8d,0xfe,0x5b,0xfa,0xc3,0x02,0x7d,0x03, 0x5d,0xff,0xde,0xfe,0xaf,0xfa,0xfc,0xfc, // 16368
0xe4,0x04,0x21,0xfa,0x78,0x03,0x78,0x03, 0xa4,0xff,0x61,0x01,0x47,0x06,0xba,0x02, // 16384
0x79,0x00,0xd7,0xfd,0x65,0x03,0x81,0xfd, 0x5c,0xff,0xdb,0xfa,0x5b,0xfb,0x34,0xfe, // 16400
0x44,0xfe,0xaa,0xff,0x28,0xfe,0xc2,0xff, 0x72,0xfb,0xcb,0x02,0x8e,0x00,0x21,0x01, // 16416
0x36,0x00,0x36,0x01,0x28,0xfd,0x76,0xfd, 0xc8,0x01,0x98,0x00,0x7d,0x01,0x4a,0xff, // 16432
0x83,0x00,0xaf,0x01,0x0a,0x02,0x3c,0x07, 0xe8,0xfd,0x73,0xfe,0x38,0x00,0x40,0xfe, // 16448
0x1b,0x01,0xd1,0xfd,0x1e,0xfe,0x0a,0x02, 0x26,0xf7,0xee,0x00,0x9a,0x00,0xa0,0xfd, // 16464
0x69,0x00,0x74,0xfe,0x5f,0x01,0x73,0xff, 0x91,0x00,0x51,0xfe,0x93,0xff,0x5b,0x01, // 16480
0x7d,0x00,0x76,0xfc,0xe3,0x01,0x32,0xfd, 0x93,0x04,0x5e,0x01,0x80,0x00,0xeb,0x00, // 16496
0x82,0xfe,0xe8,0x01,0xff,0x01,0x50,0xfe, 0xbb,0xfe,0x41,0x02,0x8e,0xfd,0xbe,0x01, // 16512
0xe7,0xfb,0x9e,0x02,0xb3,0xff,0x8c,0x03, 0x79,0xfd,0xa7,0x05,0x35,0x02,0xfd,0xfe, // 16528
0xf1,0xfe,0x06,0x01,0x0d,0xfe,0xc7,0xfc, 0x6d,0xfe,0x86,0x02,0xe9,0xff,0xb5,0xfe, // 16544
0x34,0x02,0x7b,0x00,0x4c,0x01,0xab,0xff, 0x2c,0xff,0xc0,0xfd,0x52,0xfb,0x5c,0x05, // 16560
0xdb,0xfd,0x63,0x02,0x14,0xff,0x6b,0x00, 0x5a,0xfe,0xc4,0x00,0xd4,0x01,0x13,0xf1, // 16576
0x37,0xff,0x29,0xff,0x28,0xfe,0x76,0x00, 0x3c,0x04,0xc6,0xfd,0x28,0x00,0x00,0x01, // 16592
0x1e,0xfd,0xf6,0xfc,0x6e,0xfb,0x79,0x05, 0x3f,0xfa,0x08,0xff,0x88,0x00,0x3c,0xfe, // 16608
0xd7,0x02,0xd1,0xfe,0xb1,0xfd,0x53,0xfd, 0x51,0x05,0xca,0xfc,0x61,0xff,0x45,0xff, // 16624
0xe0,0xfa,0x19,0xfe,0x82,0xff,0x05,0xf9, 0x6c,0xfe,0x07,0x02,0x1b,0xff,0x6a,0xfe, // 16640
0xbc,0xff,0xf1,0x07,0xb2,0x01,0x58,0x01, 0xfe,0xff,0xa8,0x00,0xb3,0xf9,0x26,0xfd, // 16656
0xc9,0xfe,0x48,0x00,0x7d,0x00,0xb1,0xfe, 0xa1,0x03,0x89,0x00,0x3e,0xfe,0xc7,0x06, // 16672
0x1a,0x02,0x62,0xfe,0xef,0x00,0xfc,0xfe, 0x6a,0x00,0x62,0xfa,0xea,0x00,0xf0,0x00, // 16688
0xa0,0x06,0xc7,0xfd,0x5f,0x00,0x09,0x02, 0xdc,0xfa,0xf5,0x00,0x08,0x00,0x47,0x01, // 16704
0x40,0xff,0xbe,0xf9,0x8d,0xfd,0x1e,0xfe, 0xb2,0xfd,0x00,0xff,0x65,0xf8,0x43,0xfd, // 16720
0x4e,0xff,0x67,0xfd,0x97,0x02,0xbb,0xfe, 0x7f,0x00,0xf5,0x00,0x9c,0x02,0x64,0x02, // 16736
0xdb,0x01,0x05,0x02,0x59,0xfe,0xa7,0x02, 0xe3,0xfb,0x61,0xfe,0x3e,0xff,0x60,0xfe, // 16752
0xbd,0xfc,0x9c,0x02,0x08,0xff,0x0a,0xff, 0xc2,0xff,0x05,0xfd,0x8b,0xff,0x55,0xfe, // 16768
0x13,0xff,0x41,0x01,0xe2,0x00,0x14,0x02, 0x14,0x05,0x12,0xfc,0x1e,0xfe,0x00,0xff, // 16784
0x81,0x02,0xff,0xfe,0xd5,0xfe,0x31,0xfd, 0xe6,0xfe,0xcd,0xfe,0xab,0x00,0x23,0xfe, // 16800
0x58,0xff,0xf3,0x01,0x15,0xfe,0x0e,0xfd, 0xbe,0x00,0x76,0xfb,0x79,0x08,0x41,0x01, // 16816
0x34,0xfe,0xe9,0xfe,0x7d,0x01,0x6f,0xff, 0x63,0x03,0xfa,0x02,0x97,0xfc,0x87,0xff, // 16832
0xe9,0xfd,0x8d,0xfe,0x45,0xfe,0xfa,0xfd, 0x71,0xff,0xa5,0x00,0x43,0xee,0x23,0xff, // 16848
0xab,0xfe,0xa6,0xfe,0x96,0xfe,0x1a,0x00, 0xe6,0xff,0x76,0xf3,0xf3,0xff,0xa0,0xff, // 16864
0x57,0x02,0x16,0x01,0x11,0x01,0x94,0xfb, 0x9d,0x01,0xb4,0xff,0x35,0xfd,0x79,0xff, // 16880
0xfc,0xfe,0xdf,0x00,0x88,0x00,0xb2,0xff, 0x37,0xff,0x4e,0xff,0xb4,0xfe,0x6c,0xfc, // 16896
0xf6,0x00,0x22,0xfe,0x9a,0xff,0xce,0x00, 0x1b,0x00,0x29,0x00,0x6d,0x00,0x20,0x01, // 16912
0xfb,0xff,0xb9,0xff,0xfe,0x02,0x1c,0x02, 0x03,0x02,0x9e,0x00,0x65,0xf5,0xe2,0xfe, // 16928
0x96,0x0d,0x25,0x00,0xb1,0x00,0xde,0xfe, 0x35,0xff,0x8c,0xff,0xeb,0x0a,0x69,0xff, // 16944
0x81,0xfd,0xa0,0xfb,0xb4,0xfc,0xa8,0xff, 0x96,0xf6,0xc6,0xff,0x32,0xfc,0xca,0x00, // 16960
0xb7,0xff,0x13,0xff,0x76,0xfd,0xe1,0xff, 0x09,0x03,0x5c,0x00,0xdf,0x04,0x80,0x01, // 16976
0xd7,0x12,0x9a,0x00,0xb3,0xf6,0xdb,0x00, 0xee,0xfe,0xf8,0xfe,0x34,0x00,0x91,0xfe, // 16992
0xd2,0xfb,0x07,0x08,0x44,0xff,0x86,0x03, 0x40,0xff,0x6f,0x00,0xe3,0x01,0x30,0xfe, // 17008
0x48,0x01,0x96,0x00,0xdd,0xff,0xb0,0x02, 0xb5,0xfa,0x23,0x00,0xc3,0x04,0x13,0x00, // 17024
0xee,0x01,0xe8,0xfd,0x1f,0xfd,0xfc,0xff, 0x2f,0x09,0xdd,0x00,0x6d,0xfe,0x0f,0x0a, // 17040
0xc0,0xfe,0xc7,0xfe,0xf9,0x00,0x2a,0x00, 0x76,0x01,0xf7,0xfe,0xd7,0xff,0x66,0xfe, // 17056
0xb4,0xfc,0x26,0xfb,0x86,0x01,0xc8,0x00, 0x01,0xfc,0x35,0x01,0x94,0x02,0xff,0xff, // 17072
0xb9,0x00,0xef,0xfe,0xe5,0x00,0xa7,0xfe, 0x9b,0xfe,0xa4,0xff,0xbf,0x03,0xfd,0xff, // 17088
0xfa,0xf6,0xda,0xff,0x83,0x01,0xb7,0x02, 0x54,0xfd,0xf8,0xfc,0x00,0xff,0x85,0xff, // 17104
0x4e,0x01,0x59,0x00,0xc4,0x01,0x53,0x00, 0x36,0xff,0x72,0xff,0x73,0xf8,0x31,0x02, // 17120
0x08,0xff,0x74,0x00,0xd2,0xfc,0x8f,0x01, 0xa2,0xff,0xa2,0xf6,0xcb,0xff,0x2a,0xff, // 17136
0x10,0x00,0xe8,0x00,0x56,0xff,0x1a,0x02, 0xa5,0xfe,0x2b,0x01,0x89,0xff,0xb9,0xfc, // 17152
0x41,0x01,0xe8,0x00,0x14,0x00,0x46,0xff, 0x0c,0x01,0x75,0x00,0x13,0x01,0x06,0x04, // 17168
0x46,0x02,0x06,0xfd,0x0c,0x05,0xd0,0xfa, 0xda,0x01,0x3c,0xfe,0xbf,0x02,0x65,0xfe, // 17184
0x61,0xfe,0xb6,0xfd,0x78,0xfa,0x93,0x05, 0xa9,0xff,0x3e,0xfb,0x74,0x08,0x25,0x05, // 17200
0xbf,0x01,0x0f,0x00,0x21,0xfe,0x5b,0x01, 0xf6,0x00,0x2d,0xf9,0xbe,0xfe,0x8b,0x00, // 17216
0x01,0xfc,0x60,0xff,0x40,0x02,0xad,0xff, 0xf9,0xfe,0x06,0x00,0xe0,0xfc,0x88,0x01, // 17232
0x69,0xfd,0xc3,0xfe,0x43,0xf9,0x2c,0xff, 0xf7,0xfe,0x70,0x01,0xa1,0xfd,0xd1,0xff, // 17248
0xcb,0xfc,0x10,0xfd,0xf6,0x00,0xe6,0x00, 0x04,0x00,0xa8,0x02,0xea,0xff,0x95,0xff, // 17264
0x97,0x00,0x46,0x02,0x22,0xfd,0xad,0x01, 0x81,0xff,0x0e,0x01,0x86,0xff,0x3a,0x03, // 17280
0xa1,0x00,0x4c,0x00,0xcc,0x03,0xa5,0xf9, 0x8b,0xff,0x91,0xff,0x70,0xfd,0xe4,0xff, // 17296
0xc7,0xfc,0x28,0xfc,0x37,0x04,0xfd,0x00, 0xa4,0x01,0xe5,0x02,0xab,0xfc,0xb9,0xfe, // 17312
0x3c,0x03,0x4c,0x03,0xdd,0xf6,0x9f,0x03, 0x0e,0xfe,0x43,0x00,0x52,0x02,0x85,0xfd, // 17328
0xe7,0x04,0xde,0x01,0x4d,0x05,0x8e,0x00, 0xbb,0xfc,0x5d,0xfe,0x91,0x00,0x49,0xf9, // 17344
0xd4,0xfc,0xc2,0x01,0xae,0x00,0x4b,0xfd, 0xbd,0xff,0xe2,0x00,0x14,0x01,0xc9,0xfd, // 17360
0x76,0xfd,0xad,0x04,0x2c,0x06,0xa1,0xfe, 0x72,0xfe,0xc3,0xfe,0x3e,0x01,0xb3,0x01, // 17376
0xac,0xfa,0xa1,0xff,0x0a,0xfc,0xb8,0xfb, 0xfa,0x00,0x97,0xfd,0x84,0xfe,0x85,0xff, // 17392
0x4e,0xfd,0xbd,0xfb,0xb5,0xfe,0x2e,0x09, 0xa1,0xff,0xd6,0xfe,0xa5,0x03,0xe9,0x08, // 17408
0x51,0xfd,0x77,0xfb,0x2d,0x02,0xd3,0xfc, 0xa6,0xfc,0x11,0x02,0xdc,0x00,0x0f,0xff, // 17424
0xe6,0xff,0x74,0xff,0xf4,0xfe,0x2e,0x00, 0x9c,0xff,0x86,0x01,0xdd,0x03,0x2b,0xff, // 17440
0xc1,0xf9,0x8a,0xfc,0xf0,0xff,0xf3,0xff, 0x62,0x02,0xd2,0xff,0xe7,0xfd,0x7e,0x01, // 17456
0x76,0x01,0x99,0x00,0x49,0x00,0xcd,0xff, 0x5c,0xfd,0xbb,0x01,0xf3,0xfe,0x47,0x02, // 17472
0xa9,0xfe,0x65,0x00,0x7c,0x06,0xf4,0x00, 0xf3,0xfe,0xb4,0x00,0x35,0x08,0xbc,0x0a, // 17488
0x6e,0xf9,0x32,0xfe,0x24,0xfc,0x3b,0xfc, 0x0e,0xff,0x77,0xf9,0x76,0xfb,0xf5,0xfb, // 17504
0x82,0x01,0xa4,0x02,0x74,0xff,0xc6,0x01, 0x4e,0x05,0xd7,0x01,0x48,0x00,0x09,0x03, // 17520
0xcf,0x03,0xf1,0xff,0xe6,0x00,0x1e,0x00, 0x6f,0xfe,0x1b,0xfc,0xa9,0xff,0xc4,0xfe, // 17536
0x56,0xf9,0x9f,0xff,0x14,0x03,0xf9,0x00, 0x14,0xfe,0x17,0x00,0x18,0xfe,0x97,0xff, // 17552
0xef,0x02,0x04,0xfd,0x4d,0xff,0xbe,0xfc, 0x0c,0x00,0xca,0xff,0x90,0xff,0x46,0x01, // 17568
0x5e,0xfd,0x3b,0x02,0xb1,0xff,0x0b,0x00, 0xbd,0x06,0xda,0xfc,0x5a,0xfe,0x5c,0x03, // 17584
0xd5,0xfd,0xd9,0x07,0xdd,0xff,0x34,0xfc, 0x7d,0xfc,0x34,0x0a,0xfc,0xfb,0x78,0xfd, // 17600
0x48,0x00,0xa6,0x01,0xfa,0xfd,0xb8,0x01, 0x90,0xfe,0xe1,0xff,0x1d,0x07,0x8a,0xff, // 17616
0xbe,0x00,0x26,0x01,0x33,0xfb,0x3b,0x00, 0x21,0xff,0x30,0x02,0x02,0xfe,0x68,0xfc, // 17632
0xac,0xff,0xb7,0xfc,0x7a,0xfd,0x98,0xfc, 0x04,0xfe,0xeb,0xff,0x69,0xfe,0x02,0xff, // 17648
0xf6,0x01,0x7e,0x00,0x13,0xff,0x92,0x04, 0x37,0x00,0x22,0xfb,0xce,0xfd,0x8a,0xff, // 17664
